#version: 0.2
Ġ t
h e
Ġ a
Ġ s
n d
Ġ w
Ġt he
e d
Ġ b
Ġt o
Ġa nd
Ġ T
Ġ h
Ġ f
i n
Ġw a
r e
i t
o u
Ġ l
Ġ d
Ġ c
Ġ p
ĠT he
a y
Ġ m
e r
Ġwa s
o m
Ġ he
i s
a r
Ġ n
i m
o n
Ġs a
i d
l l
Ġ S
Ġh a
Ġ g
a t
in g
o t
e n
a n
l e
o r
e nd
Ġ "
i r
Ġ H
o f
a m
ĠThe y
e t
Ġ it
Ġt h
i g
ĠH e
Ġ in
i l
Ġp l
o w
v er
r i
u t
Ġb e
Ġ u
Ġsa id
Ġpl ay
Ġ O
it h
ĠT im
Ġd ay
Ġw ith
p p
ĠO n
Ġ y
o o
k ed
Ġ r
Ġ I
ĠS he
Ġhe r
e x
c e
l d
Ġh is
Ġs t
k e
Ġ L
Ġb ig
n t
c k
Ġy ou
ver y
s t
v e
Ġ B
Ġ on
u n
Ġha pp
ri end
Ġf riend
a ll
il y
ex t
Ġ M
Ġthe y
of t
Ġw e
Ġha d
Ġn ot
Ġl i
Ġu p
he r
Ġwa nt
Ġ of
a d
it t
Ġ <
| >
end oft
Ġ< |
endoft ext
s e
Ġd o
Ġ e
Ġhapp y
en t
Ġ very
e s
Ġth at
Ġsa w
ĠL ily
ĠOn e
' s
Ġ A
ou ld
Ġm om
Ġf or
Ġs h
itt le
Ġl ittle
ĠT om
Ġs he
c h
im e
Ġn am
. "
Ġt ime
Ġ k
ou nd
Ġs o
Ġthe re
Ġnam ed
Ġs m
Ġb o
Ġwe re
Ġn e
Ġwant ed
Ġb ut
ou t
Ġfriend s
v ed
! "
h t
ir d
e l
Ġb ird
a l
Ġa n
a ke
ĠI t
Ġto o
om e
u g
Ġ Ċ
id e
Ġw ent
Ġw h
Ġhe l
ĠOn ce
Ġ is
Ġa ll
Ġhel p
u e
Ġl oo
Ġl o
t er
Ġup on
r y
o re
i nd
Ġf un
g et
Ġto y
i ll
am e
Ġa s
Ġa t
r a
Ġ j
Ġd id
get her
Ġ re
u r
Ġ o
Ġs e
Ġto gether
a ck
Ġc at
l y
Ġt re
oo d
i c
t ed
Ġdo g
Ġc ould
Ġc an
Ġthe ir
ar d
e c
ar k
Ġg ir
Ġplay ed
Ġh im
Ġb all
? "
Ġgir l
Ġr o
w ay
Ġg o
he d
m y
Ġa re
Ġ out
Ġl e
Ġf r
a in
ĠB ut
he n
Ġk n
Ġthe m
u m
' t
a x
Ġsa d
Ġ W
ĠS ue
u l
Ġbo y
Ġtre e
ot her
Ġha ve
Ġm an
ĠM ax
Ġc l
Ġlo ved
Ġloo ked
ou g
Ġf ound
Ġs p
Ġst ar
on e
h ing
Ġs c
Ġb ack
ow n
ĠB en
a re
Ġli ke
f ul
s ide
Ġm e
Ġbe c
ĠS am
Ġp ark
ig ht
on g
Ġc ar
Ġ J
o p
el t
Ġli ked
Ġw ould
Ġm ake
r ound
Ġl a
Ġf a
Ġf elt
Y ou
e ll
Ġse e
om et
Ġas ked
a g
Ġne w
Ġn o
i ce
ou se
Ġstar ted
ar ed
Ġc ame
Ġa l
Ġ other
oug ht
il ed
Ġ F
Ġs omet
Ġa g
Ġg ood
Ġsm all
s s
Ġb r
Ġsm iled
Ġs ay
ri ed
ad e
ĠS p
ing s
o b
Ġw or
ĠSp ot
Ġf ind
i a
Ġa way
t y
Ġp ut
Ġ ex
Ġwh at
Ġsomet hing
Ġfr om
Ġm ade
Ġth ought
en ed
Ġh ome
Ġplay ing
Ġc o
oo k
Ġe very
Ġwa l
Ġm u
u c
a ch
ar n
Ġr an
i le
i e
ĠM ia
a ve
Ġag ain
Ġs ome
Ġla ug
d d
Ġh ouse
Ġd own
Ġf l
k ing
Ġtoo k
Ġsc ared
Ġp r
n y
u re
Ġtoy s
Ġle arn
Ġ You
i f
Ġw ill
Ġbo x
i ck
re t
a b
e p
Ġm y
Ġa round
Ġth ings
Ġyou r
ou d
Ġb l
u ck
Ġw hen
is h
Ġli ved
Ġf e
Ġthe n
Ġs un
a s
Ġs w
ĠS o
, "
ĠM om
Ġc h
u s
pp ed
Ġa b
an k
Ġg et
uc y
um p
Ġl ot
is t
ĠL ucy
Ġ D
ot h
a p
Ġt ried
Ġkn ow
Ġsay s
Ġg ot
it ed
Ġwh o
T h
Ġkn e
u st
Ġman y
ĠB ob
nd er
Ġin t
Ġab out
Ġp ret
Ġd ec
Ġan y
Ġr ed
i ve
Ġkne w
a ce
ou s
Ġm ore
is e
Ġ v
Ġc are
all y
Ġp ic
a u
q u
Ġh ug
Ġlearn ed
Ġp o
Ġwa ter
f ter
Ġbec ame
Ġbe st
ĠA nd
au se
Ġo p
Ġg re
Ġ E
Ġex c
ur p
way s
â Ģ
Ġout side
Ġlaug hed
Ġloo k
Ġal ways
Ġdec id
Ġsh ow
Ġu n
an t
Ġro om
f e
Ġdecid ed
Ġh o
Ġbec ause
Ġint o
Ġe at
it e
Ġj ump
Ġp e
Ġb oth
er s
ĠThe n
Ġd ad
u dd
Ġ ke
Ġon e
ĠW hen
n n
Ġth is
Ġexc ited
Ġfa st
Ġn ice
Ġfe el
Y es
Ġr un
Ġl ong
ĠA nn
Ġto ld
Ġs k
Ġa m
urp r
ou r
Ġin side
u ll
Ġt r
Ġs urpr
Ġm o
ĠH is
in k
Ġpret ty
in y
Ġs or
Ġt ake
ĠF r
o g
Ġ C
Ġs l
Ġe ach
Ġg ave
h at
Ġmu ch
Ġg ra
le w
Ġro ck
Ġh ow
Ġst r
ar a
im al
Ġan imal
g ed
Ġne ed
Ġth an
ĠAnn a
ĠA my
v en
et ter
Ġto w
Ġ or
ĠA s
Ġu nder
es s
Ġo ld
Ġsor ry
g e
is ed
r o
ur t
ĠS ara
Ġc le
Ġf ish
Ġwal ked
Ġcl o
a nd
he re
Ġbe ar
a se
a st
Ġha nd
ur n
ĠW e
Ġk ind
Ġhapp ened
Ġj ust
Ġfl ow
ĠH er
Ġf ood
Ġl ist
Ġdid n
Ġt e
Ġanimal s
Ġh ig
Ġne ar
Ġwa t
ĠI n
Ġ ide
Ġt ry
c hed
Ġsk y
in e
Ġs n
p l
v ing
Ġf i
Ġu s
ĠFr om
Ġide a
Ġb etter
Ġb ug
Ġhe ard
g ry
Ġit s
Ġt w
Ġl et
p ec
at e
ab le
f f
Ġ en
Ġcare ful
Ġsh are
Ġ if
Th ank
Ġf ly
Ġst or
i al
Ġf lew
m ore
Ġany more
Ġsp ec
Ġspec ial
i on
Ġc om
Ġlot s
Ġne ver
Ġb y
l f
re am
Ġd an
Ġb u
Ġf o
Ġw ind
Ġd on
ĠE very
Ġt al
Ġcle an
or t
Ġg r
Ġlo ve
r m
b er
Ġ end
op le
Ġe ven
Ġm ag
Ġ K
Ġh ard
Ġsh iny
udd en
Ġf ore
Ġo ver
Ġc ake
a k
Ġb ook
Ġco l
Ġt urn
Ġf am
Ġb ad
Ġsa fe
Ġa fter
ad y
udden ly
Ġpe ople
Ġpr oud
Ġsurpr ised
pec ted
L et
Ġhig h
Ġc u
Ġh urt
Ġc ome
im b
ard en
Ġdo or
Ġg arden
b b
Ġg round
Ġop ened
Ġpic ked
Ġl oud
Ġcl imb
ex pected
Ġun expected
h y
Ġg l
Ġc he
il d
Ġ im
Ġg ive
Ġwa y
a il
' m
Ġthan ked
Ġcol or
Ġbl ue
Ġst ill
Ġe ver
Ġhug ged
Ġ P
Ġc all
Ġf ar
i p
N o
Ġof f
Ġmag ic
i z
ag e
oug h
um my
Ġjump ed
Ġsh ould
Ġfam ily
Ġp ar
oo l
Ġk id
Ġsm ile
ĠJ o
he s
u ff
Ġpl ace
k ay
Ġwal k
Ġn ow
c t
Ġgre at
e m
Ġ qu
ĠS uddenly
le s
Ġstr ong
Ġst ay
Ġu nt
Ġst o
a ut
Ġfore st
t ure
an e
Ġb ra
itt y
Ġfr og
Ġbr o
Ġunt il
Ġbe aut
d y
Ġs qu
Ġst ick
Ġn ext
Ġbo at
le ase
n ing
ĠS ally
ĠA fter
Ġ N
Ġhapp ily
Ġlist en
a king
Ġkid s
Ġt ra
ĠK itty
i es
i ful
Ġbeaut iful
Ġa pp
Ġhelp ed
Ġd ra
Ġshow ed
Ġclo s
b e
Ġim p
Ġstor y
un ny
Ġwh ile
Ġtow n
re l
p t
Ġr ain
re ss
Ġpic ture
ĠA t
o y
Ġbe ing
Ġre m
Ġevery one
ar y
re e
Ġm or
Ġ R
Ġha t
Ġcall ed
Ġm et
Ġsto pped
Ġa d
Ġg ame
Ġw o
C an
Ġan gry
g er
uff y
Ġs oft
ĠF in
Ġop en
Ġtr uck
Ġke ep
Ġc ry
Ġy ummy
ĠT h
Ġlo st
Ġb ed
ĠL et
Ġwa rm
b y
v ent
ĠJ ack
Ġbra ve
Ġm ouse
Ġat e
o on
is hed
Ġd e
I t
f ore
Ġdo ll
s o
Ġcould n
Ġwat ch
Ġle ave
Ġal so
dd ed
Ġf ell
Ġgre en
Ġfa ce
Ġtw o
ĠF l
g an
is s
Ġflow ers
b it
Ġ âĢ
b le
Ġno ise
W hat
ab bit
ir st
ow l
Ġw here
a z
o ck
Ġso on
se lf
Ġsl ide
Ġr abbit
Ġho le
Ġ G
Ġbe fore
ir rel
Ġp us
ir ed
Ġsa t
ill y
Ġhe ar
ĠFl uffy
Ġu se
Ġp a
Ġke pt
H i
ĠâĢ ľ
âĢ Ŀ
Ġsqu irrel
e ar
m a
Ġno dded
ĠN ow
Ġex pl
Ġst ore
Ġc ook
Ġhand s
L ook
Ġbird s
Ġp ain
Ġgo ing
Ġfun ny
Ġha ving
d ay
Ġs ing
ay be
u ch
Ġe y
a ug
Ġcat ch
aug ht
ĠC an
u it
Ġy ell
Ġth ink
le ep
Ġc ra
Ġf in
Ġb re
Ġfi x
Ġt ired
Ġb unny
Ġus ed
Ġloo king
Ġb us
an ge
a ir
Ġwor k
Ġw r
t ing
Ġ our
Ġp ull
W e
Ġth r
Th at
t hing
Ġwa it
Ġk it
Ġs ound
Ġj o
Ġha s
Ġme an
Ġpo nd
em ber
Ġbe h
Ġd r
Ġsun ny
l ed
Ġother s
Ġas k
n g
c hen
Ġkit chen
Ġtal k
Ġfl o
Ġd if
Ġp ie
re w
Ġhe ad
Ġre al
Ġf irst
Ġt ri
Ġmom my
Ġey es
ell o
Ġimp ort
H ello
M om
Ġfa v
ĠD o
j oy
Ġ z
Ġrem ember
Ġr ight
Ġflow er
Ġc on
Ġm ess
ĠW h
Ġpar ty
Ġco ld
Ġv o
Ġsw e
i ous
f t
Ġsa nd
a c
at h
or n
Ġr ace
Ġcu ri
im es
Ġimport ant
Ġd uck
Ġmor al
Ġsh ared
z y
ou nt
Ġ ice
Ġo kay
Ġad vent
Ġwor ked
ll ow
ir t
Ġen joy
Ġd ress
Ġbr ight
Ġm aking
Ġcuri ous
Ġ own
ĠD ad
Ġt all
Ġh op
re ed
Ġh id
Ġfav or
Ġ ri
h n
Ġs leep
Ġd is
Ġfavor ite
W ow
Ġth ing
Ġbe gan
Ġm on
Ġb ag
Ġh ill
Ġcl a
D on
Ġdra w
Ġre st
Ġhe re
Ġy ard
ĠTh is
Ġt ell
ĠJo hn
st er
Ġwat ched
q ue
Ġfo llow
Ġmo ve
Ġbe l
ec t
Ġc ut
Ġn ight
Ġag reed
Ġp ick
c o
Ġbl ock
Ġh un
ap er
ll y
Ġst op
Ġbeh ind
Ġsurpr ise
i ed
Ġsh o
Ġh ot
Ġt able
Ġgra ss
Ġwor ry
Ġd ark
Ġtre es
Ġvo ice
Ġwal king
fe re
Ġflo or
Ġfar m
Ġli on
Ġto p
Ġdif fere
Ġp lease
ĠT hat
ĠM r
Ġr u
Ġs ong
ĠBob o
Ġbut ter
Ġt ail
Ġswe et
Ġsh out
Ġcolor s
Ġre ad
Ġl ady
Ġfor g
is y
ĠJ ane
Ġleave s
Ġclos er
ig n
Ġcar s
ĠTim my
Ġturn ed
Ġneed ed
Ġt ast
W hy
ar ing
Ġw ood
Ġc ried
Ġdiffere nt
Ġlaug h
Ġd el
Ġpie ce
âĢ Ļ
er ed
Ġro ll
Ġadvent ure
Ġfi re
Ġdo es
i ke
Ġc r
Ġhun gry
Ġha ir
Ġp aper
Ġfeel ing
Ġyell ow
Ġf ull
b o
Ġpr in
Ġto uch
Ġw et
Ġfriend ly
Ġp er
o om
k en
c ked
ĠMom my
a ched
Ġsw ing
Ġfr uit
i ent
Ġbro ken
Ġre ady
ĠA ll
by e
pp y
Ġpr om
Ġan other
Ġl ight
Ġpret end
Ġdan ce
at er
Ġclimb ed
w here
Ġlist ened
Ġdan c
Ġrun ning
Ġon ly
Ġpl an
Ġg one
Ġsw im
bb ed
Ġtra in
il a
nd ma
s h
Ġclo se
a v
ar t
Ġsm ell
ab y
Ġam az
Ġho ld
Ġblock s
Ġwo nder
Ġre pl
ĠEvery one
ĠL ila
Ġbutter f
Ġse es
Ġre ached
Ġwa ll
Ġp u
one y
Ġsl ow
Ġhelp ing
Ġd ri
Ġc ream
Ġc ool
Ġgl ad
a f
Ġa nt
Ġl ess
Ġbe en
Ġgood bye
Ġa c
Ġf ight
at her
e y
Ġpus hed
ic ed
Ġfa ir
Ġmu st
Ġh ide
Ġmom ent
Ġwind ow
Ġs it
Ġa r
Ġball oon
Ġsn ow
Ġch ild
Ġexpl ore
Ġw ished
Ġb aby
Ġd one
Ġwa g
Ġst e
Ġbu y
Ġst uck
Ġper f
ĠJ ust
ĠSo on
Ġth ank
Ġm ight
ic y
Ġnam e
iz ed
Ġtry ing
Ġb it
Ġcom ing
Ġb ar
Ġqu ick
Ġf all
Ġapp le
ĠT o
Ġsc ary
as h
Ġlook s
Ġbu ild
Ġdo ing
ir ty
Ġw in
Ġunder st
a isy
Ġd in
Ġd ream
ĠThe re
Ġd irty
Ġhe ld
am es
Ġbook s
Ġm ar
Ġbutterf ly
Ġle ft
Ġshout ed
Ġc ount
Ġrepl ied
av y
Ġre ach
Ġt iny
Ġthr ough
ot t
Ġd ro
Ġwh y
Ġa ir
Ġbr an
Ġla nd
ke y
Ġth ree
Ġpull ed
Ġsp l
Ġgr ow
Ġtre at
Ġbr other
Ġw ise
Ġwood s
Ġs ure
' re
Ġch air
i x
Ġm at
in s
Ġse en
Ġp ink
Ġcla pped
Ġpl ant
el y
Ġ owl
Ġcu p
ie ld
Ġsomet imes
and y
Ġf ill
Ġcl oud
as k
Ġsw am
out h
Ġj ob
Ġcolor ful
ĠIn side
Ġremember ed
Ġbig ger
Ġne st
Ġm outh
O kay
Ġless on
Ġjo in
Ġc re
p h
ou p
ro om
Ġwa ved
udd y
Ġgra bbed
Ġstay ed
O h
Ġpain t
Ġcl ot
Ġcon t
Ġclot hes
ow er
ĠD aisy
Ġwa ited
Ġquick ly
c le
Ġwor d
Ġbro ke
uck y
Ġg ames
Ġc ast
ĠB uddy
Ġb lew
Ġg ent
ĠFin ally
ĠWh ile
Ġenjoy ed
Ġnot iced
ri es
at ion
Ġs et
Ġlike s
Ġpicture s
Ġmu s
t on
d e
Ġse a
Ġhe avy
Ġal one
Ġg if
as ure
Ġany thing
Ġsp ot
Ġm iss
Ġho pped
Ġwor ld
Ġturn s
or m
Ġy ear
d er
Ġb ott
Ġp at
Ġp ot
Th is
Ġp en
l c
ĠSara h
Ġm ix
Ġa rm
Ġb ike
Ġt ight
ĠTom my
Ġevery where
Ġw on
Ġtow er
Ġth rew
Ġhim self
Ġfollow ed
Ġr ide
m an
e re
p e
le ss
Ġj u
Ġj e
am p
ap e
Ġcom p
Ġke y
ed dy
r ow
ĠW hat
" .
Ġwh ite
ct or
Ġwr ong
Ġmake s
Ġbre ak
Ġbl ack
are nt
e e
n er
Ġde ep
t hy
Ġmus ic
ĠE m
Ġpo l
Ġdel ic
ce ss
u ed
Ġforg ot
Ġbe e
Ġp arent
o lly
Ġcast le
ve s
Ġe m
D o
i et
Ġwe ar
Ġh it
Ġ ve
is ter
ou n
Ġqu iet
Ġr ound
ĠB illy
an ce
Ġst u
Ġdanc ed
Ġv is
ull y
Ġwant s
Ġle af
Ġmon ster
Ġn ap
Ġunderst and
an g
Ġb owl
o s
r ot
Ġb or
Ġtal ked
itt en
re n
Ġd ry
Ġfast er
Ġcook ies
ĠG ra
ĠJo e
Ġbr ought
f ully
Ġle g
ro ss
Ġm um
z z
Ġs ide
Ġs ign
Ġsm art
c y
Ġrock s
Ġsome one
Ġpo in
Ġse c
Ġsh aring
Ġfo x
Ġwe ll
Ġre s
Ġre l
Ġhapp en
Ġbut ton
Ġbran ch
Ġre ally
Ġfin ished
en ce
ard s
Ġdin ner
Ġs ister
Ġfly ing
Ġcont in
Ġwor ried
Ġe le
Ġ Z
Ġvis it
ĠM aybe
Ġbe ach
Ġ que
t h
Ġsec ret
Ġe l
Ġk ing
Ġgif t
g y
Ġto day
Ġperf ect
Ġri ver
Ġevery thing
Ġs illy
Ġsh in
i pp
Ġdan ger
Ġchild ren
Ġg u
Ġf ield
Ġfill ed
Ġf ur
Ġel se
Ġsmile s
Ġwe lc
Ġw ish
Ġsa ng
Ġg i
z e
Ġp udd
Ġsn ack
Ġeat ing
Ġreal ized
Ġpiece s
Ġprom ised
ĠC h
or d
Ġsp r
Ġp ig
Ġf ree
Ġcontin ued
Ġstar t
Ġb ite
e ad
Ġparent s
Ġcare fully
at ed
itt ing
Ġj ar
Ġc ow
M aybe
Ġbl ank
Ġdra g
st ead
Ġor ange
Ġmu d
Ġcry ing
Ġblank et
Ġen ough
Ġroll ed
ck et
Ġs oup
Ġsa il
Ġp urp
im i
Ġy es
a le
Ġdr ink
Ġsn ake
se s
Ġb oun
Ġp et
Ġcra b
Ġlaug hing
Ġthr ow
Ġfair y
Ġword s
Ġamaz ing
ĠJ im
Ġb ath
i ch
Ġpurp le
ĠJ en
Ġwith out
i re
ĠM imi
Ġbott le
Ġgra ndma
us ed
on s
Ġp ast
Ġm oney
i ver
f ort
Ġm ail
Ġbar ked
Ġwag ged
Ġat t
ch ool
Ġmon key
Ġdo ctor
un ch
Ġbr own
Ġmo ved
is es
Ġask s
ĠB l
Ġget ting
Ġclos ed
Ġw he
Ġwelc ome
Ġs u
Ġc andy
Ġs chool
Ġmor ning
Ġown er
g g
Ġl on
Ġm other
Ġhig her
Ġs itting
Ġtre asure
. âĢĿ
Ġsm o
! âĢĿ
Ġdanger ous
Ġlon ely
Ġli ving
Ġapp les
Ġsh op
as ed
Ġstr ange
ve l
us h
Ġshin ing
Ġro ad
Ġcre at
un a
Ġpa w
Ġ -
Ġr a
Ġsho es
Ġp re
i ble
Ġst re
Ġtal king
al thy
Ġc aught
Ġe gg
o l
Ġpa ss
m e
Ġl ake
Ġrun s
Ġb uck
Ġl etter
Ġw ings
Ġche e
f ish
Ġm ad
Ġf an
ask et
Ġb asket
a ss
Ġdrag on
a pp
B ut
s et
ck s
Ġst one
Ġthink s
T im
Ġst and
Ġdelic ious
Ġno se
Ġpudd le
Ġto m
Ġbel ie
Ġfarm er
Ġsa me
Ġyear s
bo ard
Ġt eddy
Ġb at
is k
it ch
Ġm ine
Ġse ar
Ġco at
c hes
ĠEm ma
ig h
Ġday s
Ġbr ing
Ġgent le
Ġf it
ĠTo gether
Ġfin ally
Ġwh ist
ar s
Ġcr ay
ig g
Ġsc ream
Ġk ite
ĠM olly
Ġhear t
Ġp ill
ph ant
ar m
ĠR e
Ġv ill
Ġch o
Ġsing ing
T he
ell a
s w
in ed
Ġtast y
Ġb en
Ġp h
Ġtr ou
Ġshe ll
Ġher self
Ġhop ed
Ġan sw
Ġw ore
Ġsw ings
s y
Ġh or
Ġbel ong
P lease
Ġpus h
isk ers
Ġcar rot
Ġar ri
aught y
Ġte ach
ĠBl ue
b ow
ra ct
Ġn aughty
Ġbus h
Ġele phant
Ġdro pped
Ġsh ap
i er
Ġco ll
s c
Ġte ac
Ġwo ke
r ed
b all
Ġp ile
Ġhid ing
Ġc our
ĠThe ir
ĠWh iskers
Ġpar t
is a
er ry
Ġto uc
Ġm in
Ġpu ppy
' ll
Ġsee m
ll ie
Ġtw ins
am a
Ġl unch
Ġb ow
Ġsa ck
ĠRe my
Ġp ers
T om
Ġcour se
Ġche ered
Ġshap es
Ġgre w
ĠB ella
f used
Ġro pe
Ġvill age
irt h
irth day
Ġju ice
i pped
Ġrain bow
ĠL isa
Ġsp in
O K
ĠM ark
Ġsh ook
Ġsp oon
Ġben ch
Ġstre et
Ġf ence
Ġcut e
ĠL e
Ġro b
Ġn ut
Ġchee se
Ġpr ob
Ġtouc hed
id ge
co l
Ġj oy
ĠJ ill
Ġarri ved
Ġse ed
Ġwa r
Ġteac her
Ġc orn
G ood
Ġfore ver
Ġab le
Ġbe ll
Ġfe w
Ġcar ry
ĠGra ndma
Ġmo st
Ġpl ane
le m
Ġe as
Ġsound s
ll a
Ġd es
Ġsp o
Ġprob lem
Ġb irthday
Ġp ower
Ġin c
um b
b r
Ġbug s
il k
Ġwonder ful
ĠTh ank
Ġdoll s
Ġbus y
at o
ir p
Ġw ra
Ġprom ise
Ġfeel s
i an
et er
Ġbre ad
o st
Ġne ck
Ġm ilk
Ġrob ot
Ġre c
Ġsh y
ount ain
Ġk iss
Ġb and
Ġc ave
Ġpo cket
e b
u b
Ġhelp ful
g ly
Ġslow ly
Ġbelie ve
Ġsh ake
ump y
e ared
Ġpat ient
Ġp op
Ġo b
ar p
Ġli ve
Ġstor m
ĠFr ed
Ġhold ing
Ġu gly
Ġtow ards
Ġup set
Ġt urt
Ġsh r
ad ow
Ġco ver
Ġk itten
Ġsh arp
Ġdis app
Ġstor ies
Ġs uc
Ġh oney
o ve
re ad
Ġno ises
Ġc ir
Ġball s
ĠL ater
Ġsp ark
Ġgr ay
Ġd ist
Ġd irt
og gy
Ġl ate
Ġdri ver
Ġse at
Ġbuck et
Ġme et
Ġyou ng
Ġamaz ed
Ġturt le
al m
Ġsp id
Ġtreat s
ĠB e
Ġmagic al
u nt
at or
Ġgl ow
Ġsee k
Ġz oom
Ġle m
Ġsand w
fort able
um ber
Ġtri p
Ġm ist
Ġspl as
ĠLe o
our n
Ġm ark
Ġj ourn
Ġfo ld
Ġm ach
Ġpu zz
l ing
Ġhor se
Ġor gan
Ġw ild
Ġprin cess
pp ing
oo se
Ġcook ie
en s
Ġhug s
L ily
Ġt aking
un g
Ġwhe el
ep end
Ġcl oth
Ġs ug
Ġin stead
Ġbu bb
Ġstr ing
Ġn et
Ġdro ve
il ing
Ġru de
Ġhug e
Ġco in
Ġstar s
Ġfight ing
Ġsp icy
Ġl ucky
S ure
O f
Ġcra w
H ey
Ġb one
Ġin v
or s
n ot
ĠM ary
Ġc a
pp er
Ġfor get
u p
Ġd i
a ur
Ġsa l
er t
Ġcan not
Ġwhist le
Ġc ard
Ġs ick
Ġp ath
Ġc ou
Ġspid er
Ġw ide
ĠM ama
Ġfo ot
Ġsnow man
Ġli fe
Ġsong s
Ġpill ow
iz e
ĠB u
Ġfix ed
ĠC at
e st
Ġgi ant
ri ll
Ġcar t
ĠW ith
Ġno d
Ġbo ss
ul ar
Ġla st
Ġcom es
Ġjo ke
ĠL una
Ġmo on
Ġtast e
d en
Ġmach ine
Ġgr umpy
ĠDad dy
Ġwa ve
Ġth in
Ġdri ve
Ġas h
Ġs er
Ġgra b
Ġpe ace
Ġdad dy
er y
Ġs el
Ġshe lf
Ġhid den
ere st
Ġs uddenly
Ġwas n
Ġwr ite
Ġland ed
Ġcon fused
l ower
Ġr ing
Ġch ange
Ġwor m
oo p
Ġint erest
Ġch ased
Ġfruit s
Ġs our
it y
Ġmy ster
Ġb ark
Ġr ad
Ġsmo oth
ĠC ome
Ġadventure s
Ġv al
Ġste pped
Ġf le
op e
Ġo ven
ĠCh irp
Ġtake s
Ġmiss ed
le t
Ġsel fish
k in
Ġshe ep
Ġmess y
Ġac ross
Ġ ent
Ġex p
t o
Ġc e
Ġl ater
ell y
if e
e ver
Ġstick s
Ġt ie
pec t
Ġb ought
Ġst ep
Ġd rew
Ġb an
bo x
? âĢĿ
Ġwas h
Ġl ay
Ġp our
o se
Ġbe ak
Ġj og
Ġgr ate
ĠMom o
Ġduck s
Ġsp e
Ġleg s
ug g
Ġf il
Ġem p
m er
Ġhop e
Ġte a
Ġemp ty
Ġsl id
Ġfe ather
Ġsh irt
Ġsleep y
Ġdr um
am ed
ĠChirp y
Ġz oo
Ġp an
et h
Ġph one
Ġgrate ful
Ġf ing
ion s
ĠO llie
Ġlem on
Ġcle ver
Ġsmell y
Ġim ag
Ġinterest ing
Ġsa ve
Ġch ick
Ġc alm
Ġspl ash
Ġm ed
Ġwatch ing
iz zy
ĠJ erry
iz z
Ġpl ate
Ġ ign
ĠB unny
y ard
Ġcloud s
Ġban an
Ġl ine
Ġface s
Ġb a
Ġa ct
Ġth ough
Ġwo lf
Ġback yard
w el
Ġseem ed
Ġdog s
ĠJim my
Ġspr ay
ĠD oggy
C ome
Ġpr ot
Ġwho le
Ġm ot
Ġfan cy
Ġque st
Ġarm s
Ġpuzz le
Ġhe althy
Ġsu pp
w ard
Ġfin ish
er ly
Ġal ong
ll o
Ġrock et
Ġexpl ain
ul t
d ge
Ġeas y
on t
Ġje wel
Ġp ract
Ġj elly
Ġt id
Ġf ake
Ġcray ons
Ġwonder ed
Ġm aybe
Ġsc ar
Ġsh ip
Ġnot hing
one st
Ġem b
ig er
Ġp ool
Ġlong er
ĠS t
Ġany one
u ally
Ġfr ont
Ġwor king
Ġgive s
ir r
Ġp ack
Ġs uch
o cked
m ent
Ġboss y
Ġtrou ble
Ġsmell ed
Ġsa ved
Ġp in
ra ss
Ġne igh
S t
ar rass
it ing
Ġh onest
Ġa v
ar ge
Ġemb arrass
Ġli ft
Ġv an
Ġforg ive
Ġtid y
Ġwe ak
ur se
Ġput s
un k
Ġk ick
ĠM um
Ġm ind
Ġneigh b
Ġplant s
ĠBob by
Ġso l
Ġgent ly
Ġco zy
or row
Ġprin t
m ing
Ġexpl or
s p
Ġmist ake
Ġy og
o c
oom y
Ġpoin ted
Ġl ad
Ġa f
Ġst ood
or k
Ġon to
Ġjump ing
Ġwait ing
Ġprin ce
Ġc ross
Ġlo ck
Ġche er
Ġque en
ĠW hy
Ġw ing
on es
w e
Ġl arge
Ġlove ly
Ġs ur
Ġre t
Ġde er
Ġche w
Ġcou ch
Ġb al
ĠM y
Ġst ret
aught er
er a
Ġplace s
B e
Ġlad der
Ġret urn
ra id
ĠS omet
Ġe ar
Ġant s
Ġd ish
Ġaf raid
Ġclean ed
Ġtom orrow
Ġbuild ing
Ġsandw ich
Ġpers on
e k
n ed
Ġpretend ed
Ġboun ce
Ġw ip
ge st
Ġmat ch
Ġri ch
u ce
Ġp izz
Ġg ather
Ġsear ch
Ġbor ing
ĠT iny
om an
Ġte eth
Ġh um
ac ed
Ġd aughter
Ġw oman
Ġscar f
Ġgo es
Ġla w
M y
Ġst ra
Ġswim ming
Ġfur ry
Ġsplas hed
ĠA l
Ġp ri
Ġlove s
Ġtr ue
ĠB ird
Ġscream ed
Ġla zy
Ġg en
Ġansw er
Ġn umber
Ġe ag
Ġash amed
Ġpizz a
a w
Ġapp eared
Ġfe ar
Ġnear by
Ġpower ful
Ġfl ag
Ġha ng
v ous
Ġcl own
Ġch ase
Ġmot or
Ġwa nd
ĠBen ny
ĠT V
Ġru b
Ġsuc cess
Ġcho col
ĠI f
Ġcreat ive
Ġtr ust
Ġwe aring
Ġno isy
Ġmat ter
p a
Ġd ig
ĠD ucky
Ġhe llo
Ġn er
Ġtoo l
Ġsa f
ad o
Ġner vous
el p
Ġte st
Ġsm iling
Ġso ld
ic ked
o ppy
os aur
Ġcir cle
m b
N ow
ĠH ow
Ġm ap
Ġdr ank
Ġcla ss
Ġtri es
Ġchocol ate
ĠP lease
Ġimp ress
Ġkne e
Ġgen er
Ġdin osaur
Ġpol ite
Ġm irr
ĠG o
Ġballoon s
Ġgo ld
Ġr are
Ġprot ect
Ġc and
St op
ĠD on
Ġcar ried
ens ive
Ġa p
Ġsh adow
Ġmirr or
Ġba ld
Ġg un
in a
Ġexp ensive
Ġre g
if f
Ġmyster ious
Ġp ump
Ġnot e
Ġher o
Ġ U
Ġmar ch
Ġres pect
Ġh ar
ar l
Ġ icy
Ġwe ird
ĠB ear
Ġsn ee
Ġc ri
Ġg ate
Ġso ap
ra g
ut e
iss ors
Ġthe se
Ġpo or
Ġtow el
Ġwh ale
Ġfe et
Ġt ape
Ġd izzy
itt er
Ġgener ous
nd pa
Ġpre s
n ic
Ġdis co
H elp
vent ually
Ġpic nic
Ġm ic
Ġle ad
Ġs que
ĠSomet imes
Ġembarrass ed
Ġjourn ey
is p
Ġsug ar
sc ape
Ġbo ot
Ġt ent
Ġpeace ful
Ġf at
Ġsc issors
Ġtast ed
Ġyell ed
Ġt ick
Ġm el
Ġbr ush
ĠE lla
Ġdanc ing
n ess
Ġgl ue
Ġh ur
Ġr ough
Ġcl ap
Ġbr idge
ot e
Ġdec or
Ġclos et
Ġcr own
Ġst ir
ĠAnd y
u al
im p
ow ed
air s
um e
Ġc ap
Ġl amp
Ġv ase
Ġsc are
le br
Ġrel ie
l ves
an y
Ġe ld
Ġte le
Ġce lebr
Ġg igg
Ġwh isp
Ġlo g
Ġbl ow
Ġpain ted
Ġsc o
Ġp ay
er ries
Ġw is
Ġb erries
Ġmix ed
Ġsp read
Ġwould n
Ġc age
Ġb ake
r ob
get able
Ġm ountain
Ġad m
Ġdraw ing
Ġbec ome
ĠB r
Ġfam ous
Ġbe an
Ġkn ocked
Ġn orm
Ġve getable
as p
Ġk icked
ust r
Ġsh ark
s er
Ġinc red
Ġlo se
Ġnorm al
Ġwra p
ĠS ome
c ed
Ġgr oup
Ġth ick
Ġ 3
Ġf ine
Ġgl ass
Ġign or
op h
Ġclo ck
Ġte am
ĠJen ny
ĠP e
Ġeld erly
Ġcle ar
Ġcorn er
M ax
Ġfr ustr
Ġmight y
rob e
Ġc one
Ġincred ible
ig hed
Ġmom s
Ġbal ance
Ġso ck
Ġsp ace
Ġj am
rag ile
Ġfr ight
Ġbran ches
Ġorgan ized
Ġro ar
p ort
Ġsw ord
al ous
Ġgu ess
Ġf ool
Ġse ll
Ġfe ed
ĠSam my
Ġwh ich
Ġh orn
Mom my
Ġpres ent
Ġje alous
Ġy arn
on y
Ġf ragile
Ġb urn
Ġunderst ood
Ġm is
Ġstu bb
Ġt er
W h
Ġfrustr ated
r ay
Ġho se
c ient
W here
Ġsp ent
Ġsho e
Ġt aught
Ġstubb orn
Ġtw ist
Ġcreat ure
Ġche st
Ġspo iled
Ġrelie ved
Ġan cient
ĠT r
i que
Ġwa ke
Ġfi er
Ġpr ay
Ġfier ce
Ġegg s
Ġc ab
Ġter ri
Ġb arn
Ġpump kin
Ġcom fortable
Ġor d
Ġfright ened
or ry
Ġto ug
Ġun ique
Ġme asure
Ġgo at
Ġwag on
Ġun us
Ġbre ath
Ġfool ish
Ġ '
Ġuse ful
Ġexplor ing
d le
Ġstra w
Ġunus ual
Ġd ug
Ġcl ay
Ġdisco ver
Ġtom ato
Ġde ad
Ġfind ing
Ġpol ice
Ġwr ote
Ġcl um
y m
Ġex am
l ace
ĠR ex
Ġwa ves
Ġsqu are
Ġhear s
Ġcab in
Ġtell s
Ġneck lace
Ġd ull
Ġclum sy
Ġtoug h
Ġbubb les
Ġno sy
k n
Ġsear ched
Ġwas hed
Ġbath room
Ġpaw s
ĠW ill
bb y
o nd
un n
an ged
Ġbo ard
kn own
f ic
Ġas king
Ġcra zy
Ġthank ful
Ġb itter
Ġsun f
y al
Ġp ir
ber ry
Ġ ind
al k
Ġdif fic
Ġro se
c il
Ġsw an
Ġbl oom
Ġun known
Ġcover ed
Ġdiffic ult
Ġa dd
Ġpen cil
Ġfing er
Ġha m
Ġh oop
Ġj et
Ġw itch
Ġdr op
Ġchick en
Ġgl oomy
a pped
Ġlo yal
al s
Ġwe althy
c om
l ight
ĠM any
Ġun l
Ġcat s
Ġend ing
Ġg uit
b led
H ere
sh ine
Ġdo ve
Ġsor t
Ġjoin ed
Ġc her
an ut
Ġmo v
Ġterri ble
Ġyour s
i ant
Ġsal ad
Ġnut s
Ġr at
Ġli f
g round
Ġt iger
Ġpot ato
Ġm ask
x ible
se lves
Ġval ue
Ġch anged
ĠBr own
Ġmo ving
Ġexc iting
orm ous
Ġbo dy
ĠIn stead
Ġto ast
Ġrec ord
er p
Ġz ip
Ġche ap
Ġdis g
Ġguit ar
irst y
Ġknow ing
Ġadvent ur
Ġyour self
Ġen ormous
Ġhair y
Ġsho ot
Ġbor ed
Ġpe pper
Ġrem ind
or y
Ġac orn
l and
Ġadventur ous
Ġsun shine
Ġsmall er
Ġst uff
Ġhat s
Ġsol ve
Ġfle xible
Ġco st
rill iant
Ġkn ife
Ġperf orm
Ġsnack s
Ġnod s
Ġsh ore
Ġb rilliant
Ġth irsty
Ġdelic ate
Ġ No
Ġfr own
Ġdisg ust
Ġcoll ect
Ġst ri
Ġseed s
Ġcount ed
Ġas leep
Ġbanan a
re en
Ġmail box
in ess
Ġtri ck
Ġd ough
Ġneighb or
B en
ung le
Ġhe al
il t
l ive
Wh o
ĠL ittle
Ġst age
id ent
Ġmark et
Ġcu be
Ġst at
Ġj ungle
Ġsque e
mb re
Ġexplain ed
at es
Ġu mbre
M e
Ġdisgust ing
Ġla b
Ġjo lly
u nd
in al
Ġfr idge
Ġcr ane
c orn
Ġs uit
Ġfl ash
p id
id dle
Ġsunf lower
Ġt imes
ic t
Ġcat erp
Ġcaterp ill
Ġrel ax
Ġsh iver
Ġf our
Ġis land
ig inal
Ġh arm
y ing
Ġstu pid
Ġmed ic
Ġcom b
Ġg oose
Ġc ro
ed ient
ĠJ ake
Ġsto ve
I f
A re
Ġind epend
m ost
Ġspr ing
Ġg em
Ġbat ter
Ġs ighed
Ġvegetable s
Ġst ones
ĠYou r
p es
Ġsh ine
Ġmedic ine
Ġd epend
Ġr ug
Ġcare less
Ġor iginal
Ġst amp
Ġg ar
Ġc ries
g u
Ġcarrot s
Ġsc r
Ġsuccess ful
Ġsa uce
Ġje ep
Ġpop corn
Ġme al
Ġob edient
Ġal most
Ġm iddle
Ġmag n
Ġstu dy
Ġindepend ent
ĠEm ily
Ġfear ful
Ġj ack
m et
ink y
S orry
Ġe scape
Ġcaterpill ar
Ġser ious
Ġpe anut
Ġbed room
Ġeag er
ak en
Ġget s
Ġpar rot
Ġstat ue
Ġhel met
Ġpe bb
Ġf ountain
ĠTo day
Ġan g
Ġra ven
Ġpast a
Ġumbre lla
Ġcomp et
art h
Ġjack et
Ġbelong ed
Ġde st
Ġfil thy
Ġdes ign
Ġbor row
Ġc am
er able
Ġhouse s
Ġbel t
Ġpri ze
Ġh ay
Ġbra ce
Ġstand ing
Ġmis erable
Ġbrace let
Ġr aced
Ġt aken
ag es
Ġfor k
Ġcray on
Ġpain ting
i o
Ġtri ang
Ġimpress ive
Ġch oose
Ġf ig
Ġpoin t
Ġt ied
ia ble
Ġspot ted
Ġlif ted
Ġsl ipped
our s
Ġt ank
Ġthought ful
Ġdepend able
Ġste al
Ġgar age
Ġbu ilt
Ġ er
ip e
ĠS n
Ġmo le
Ġcraw led
Ġsc ale
Ġboat s
Ġp ant
Ġp ian
Ġham mer
Ġbott om
ĠTr ue
Ġcheer ful
l ph
Ġus ing
ĠP eter
Ġsmo ke
Ġpick s
S am
Ġmo der
Ġshow s
ber ries
r n
Ġpian o
Ġmagn et
d ile
co dile
Ġhurt s
in ary
Ġre f
Ġcra ck
Ġen g
o in
Ġa unt
Ġmel on
ĠE ven
Ġwa ff
Ġmoder n
Ġdo lph
unn el
c ream
p ack
Ġt unnel
Ġar row
Ġmu sh
Ġrel iable
Ġho pping
Ġmush room
Ġj ug
Ġsqu ash
Ġg um
Ġs ink
Ġmov ie
Ġt ax
Ġfl ute
Ġbe et
Ġle an
i v
Ġpop ular
ic op
icop ter
Ġcry st
Ġon es
Ġs il
Ġcompet it
Ġhel icopter
as er
Ġneed s
ip op
ll ipop
Ġcro codile
Ġli z
Ġp ress
Ġtrou bled
Ġpig e
Ġlo cked
Ġtri cks
Ġlo llipop
Ġplay ful
Ġhum ble
Ġtax i
Ġkiss ed
Ġl ow
a ppy
com fortable
am ond
Ġr id
Ġun comfortable
h ost
Ġwa nder
at ch
Ġang el
ed y
c les
Ġto rn
Ġgra ce
Ġan x
Ġwra pped
Ġmu ff
Ġtw ig
Ġpant s
Ġdisapp oin
Ġhelp s
Ġdi amond
Ġcam era
ot o
Ġanx ious
Ġg host
at ter
Ġte ars
Ġru ined
H ow
ĠS us
c ident
il ty
Ġqu ar
a ff
Ġf is
op l
er opl
Ġen v
Ġgu ilty
Ġb ull
Ġa eropl
Ġhelp less
Ġhapp iness
Ġliz ard
Ġboy s
c ut
Ġc ere
Ġwalk s
ce an
Ġpass ed
t t
Ġme ant
Ġo cean
Ġfl uffy
Ġw ire
Ġn ail
Ġde af
z ed
Ġstret ch
Ġca ct
Ġcand le
Ġbeet le
Ġm op
Ġharm less
ump et
Ġord inary
Ġansw ered
Ġc op
Ġcoll ar
Ġbe es
Ġt ire
Ġsh ape
Ġquar rel
Ġrad io
Ġflash light
Ġcryst al
Ġhard er
Ġpour ed
Ġtr umpet
Ġeng ine
Ġpers ist
Ġh unt
Ġto oth
Ġcere al
Ġinv ited
Ġcomp ut
Ġt ag
Ġoff ice
Ġm elt
Ġsp ill
Ġch arm
co a
Ġl it
Ġsco ot
Ġc omet
Ġtriang le
ie f
Ġm ug
Ġre p
u be
Ġyog urt
Ġsp end
Ġcomp ass
Ġac cident
Ġsh ade
ĠP ipp
he tt
ag hett
aghett i
Ġdisappoin ted
Ġli cked
Ġcact us
Ġpa le
Ġc ush
Ġfig ure
Ġgi ving
Ġav oc
Ġreg ular
Ġshe et
Ġwhisp ered
ĠP oppy
az e
ut h
ell ig
ĠD an
Ġcre ate
Ġbar ber
Ġint ellig
Ġp ipe
Ġro de
Ġro of
Ġth read
it her
Ġli br
Ġlo ad
Ġv i
Ġgif ted
c col
Ġpract iced
Ġdel ight
ccol i
Ġhar sh
Ġd ust
Ġp ow
as ses
Ġb icy
az z
Ġsp aghetti
Ġcompass ion
Ġsa iled
ur key
Ġfor ward
u bby
Ġpersist ent
Ġspe ed
Ġm itten
Ġpr o
Ġco coa
Ġen vel
ĠBu zz
Ġquest ions
Ġcomput er
Ġc oo
Ġfeather s
Ġgl ove
g ing
Ġri ce
Ġshr imp
Ġdes k
Ġst ream
Ġin se
Ġpige on
Ġcharm ing
h ip
Ġe ars
Ġcar p
lc an
Ġenv ious
Ġkn ot
Ġt urkey
Ġstrong er
om es
Ġco ins
Ġt ap
Ġra ft
lcan o
we et
Ġtra p
ĠP olly
umb ers
Ġaeropl ane
Ġtr unk
Ġwhe at
Ġbox es
Ġch ubby
Ġcarp et
Ġrest less
Ġintellig ent
Ġt ube
Ġsp un
Ġdream s
Ġha lf
Ġfriends hip
ul if
ol in
ĠM ummy
Ġloo p
Ġcraw l
Ġbro ccoli
Ġon ion
Ġwe ek
Ġdel iver
Ġac ce
Ġv ide
Ġvo lcano
Ġs le
Ġtra ck
Ġb ri
Ġca ulif
Ġv ine
y e
Ġtick et
Ġth ief
ess ie
cy cle
Ġloud er
Ġinse ct
Ġn umbers
as ing
Ġy aw
Ġhair cut
it al
Ġsleep ing
ĠAl ice
Ġm ill
Ġal ert
Ġe ventually
Ġexc ite
Ġpebb le
Ġho sp
Ġatt ract
Ġplan et
an ger
Ġun iver
is ted
ul u
Ġer aser
Ġhosp ital
Ġreturn ed
Ġdest ro
Ġgrace ful
Ġhappen ing
ĠB et
ac he
ĠO K
Ġdec ide
Ġlearn ing
Ġsc reen
rew ork
Ġnice ly
Ġle op
Ġcaulif lower
Ġcompetit ive
Ġpo em
Ġcelebr ate
ĠP et
ach t
Ġc urt
Ġpe ach
Ġsold ier
Ġsa us
Ġpar ade
at ient
Ġattract ive
Ġcurt ain
Ġb ase
Ġdolph in
Ġvi olin
Ġway s
Ġtra vel
at s
Ġro d
Ġignor ant
ul b
Ġwheel s
Ġy acht
Ġsc atter
Ġd eter
Ġcompassion ate
Ġbar rel
Ġenvel ope
Ġbubb le
Ġl ying
Ġfi rework
G o
ĠL ulu
Ġquest ion
z zy
Ġscoot er
Ġdeter m
Ġr ag
Ġth u
Ġbicy cle
el ery
Ġneed le
Ġju dge
Ġb ulb
Ġleop ard
Ġte m
Ġp ony
Ġcri cket
Ġh omes
Ġor der
Ġad or
ter n
Ġtr uth
Ġh ook
d om
Ġru bbed
ig ator
Ġbus hes
Ġun cle
ĠM iss
Ġcush ion
Ġsp ell
Ġgr own
S ue
Ġcoo ked
Ġador able
Ġch alk
Ġso ar
Ġp urse
Ġsk in
Ġthem selves
Ġimp atient
Ġc elery
Ġtr ay
ĠS h
Ġshell s
Ġpen gu
Ġsn iff
Ġpr un
Ġwall s
Ġse al
ĠPet e
Ġlive ly
Ġc ase
Ġall igator
Ġdist ant
Ġrad ish
Ġsay ing
Ġspe ak
Ġmotor cycle
ĠT ina
Ġme at
Ġs end
ĠBird y
Ġspin ning
Ġfor th
ill a
Ġcount ing
Ġent h
Ġboun ced
Ġch ain
Ġ ed
Ġclean ing
eb ra
Ġfil m
Ġsle pt
Ġp it
Ġsur f
Ġmar ry
us ia
Ġwall et
Ġenth usia
Ġmet al
ur b
eb ook
Ġb in
Ġnot ebook
Ġsk ip
Ġwip ed
is ion
ch air
Ġbig gest
Ġimp ro
Ġavoc ado
Ġbeh ave
Ġdestro y
v ator
ĠF o
Ġband age
Ġlaugh s
Ġste ak
Ġpat tern
Ġpo st
Ġele vator
Ġd ive
Ġsh ut
Ġsk ipped
Ġunl ock
Ġdi ary
de st
j ect
Ġmin t
Ġz ebra
Ġbag s
at ing
Ġarm chair
ra ge
ag ed
Ġdist urb
Ġo y
Ġpo le
Ġshow ing
Ġcl ub
Ġgather ed
Ġn urse
b ul
Ġe arth
Ġen c
S p
Ġstr anger
Ġswe ater
Ġjelly fish
Ġsc rew
ĠSus ie
ĠR ob
Ġtem p
Ġcom pl
Ġmix er
G ive
Ġsk ull
Ġl ime
Ġb ump
bul ance
ĠC l
Ġam bulance
n am
Ġf ather
Ġjourn al
Ġloud ly
it o
Ġfold er
Ġsh ield
Ġlibr ary
Ġbutton s
Ġplay ground
Ġtruck s
Ġin k
Ġlight s
Ġt ummy
Ġpoin ting
Ġc ity
Ġdecor ate
Ġst ation
ir it
Ġpre p
Ġfall s
qu ito
Ġf u
ent ion
n ger
ĠR ose
Ġher b
Ġor nam
Ġornam ent
Ġmo dest
Ġgu ard
l ies
Ġmo s
Ġknow s
Ġc ord
Ġpol ish
Ġmar ble
Ġmos quito
umb led
Ġsal t
Ġatt ic
Ġwhen ever
Ġve st
ct op
Ġres c
Ġy et
Ġp le
Ġdisapp eared
ob y
ce ed
Ġon ce
Ġstraw berry
Ġk ay
Ġbrother s
Ġit ch
Ġpir ate
Ġfoot ball
Ġspl it
ke le
kele ton
Ġh ipp
Ġa ut
Ġl ed
ur ing
ctop us
Ġdri ving
Ġc able
Ġsupp ort
Ġcall ing
Ġcup board
ak y
ĠS unny
us hed
Ġwis hes
Ġcomp let
Ġtri pped
ĠT weet
ĠPe ople
Ġro ot
Ġkay ak
Ġo ctopus
ob ile
Ġa dded
ĠZ oom
Ġed ge
Ġm ild
st ic
Ġdeterm ined
Ġsuc ceed
?" .
Ġread ing
om obile
Ġco al
g l
ut es
Ġsug gest
p ar
W ell
Ġst ack
Ġthu nder
Ġkind ness
Ġaut omobile
Ġcompl ain
Ġenthusia stic
Ġsnee ze
Ġcart oon
Ġyog a
Ġgr owl
ht ub
Ġfle a
Ġme adow
Ġdraw er
Ġbat htub
Ġri bb
oph one
Ġha ll
Ġgo lf
Ġmean s
Ġs keleton
ĠBet ty
Ġm ath
Ġve il
Ġhunt er
R e
Ġg or
Ġfl ame
Ġpo ke
Ġvide o
Ġche ss
Ġcup s
Ġglow ing
Ġmat t
Ġoy ster
w ork
Ġpen ny
Ġsp ear
Ġit self
ess ert
Ġdraw ings
Ġhipp o
Ġrep air
Ġsw itch
gl asses
Ġsun glasses
Ġtele ph
Ġcost ume
Ġd essert
Ġz ipp
, âĢĿ
Ġre pe
Ġmuff in
Ġar g
Ġpast ry
Ġp un
Ġroll ing
Ġmin utes
Ġmake up
Ġpa cked
ir on
ri c
Ġwaff le
c ase
Ġhand le
Ġpe ar
Ġm aze
Ġteleph one
ĠT oby
op hy
Ġp ine
a it
ĠPipp in
Ġg ear
Ġhe dge
Ġmatt ress
Ġpack age
a ving
Ġsho cked
in es
Ġtr ophy
Ġpow der
Ġkn ight
Ġc ob
ĠB essie
Ġmiss ile
Ġfr ame
Ġman aged
Ġenc ou
Ġw ife
Sp ot
Ġo k
Ġse par
w eb
Ġst airs
Ġr ot
Ġc amp
t ime
r ophone
ur ch
Ġmag az
Ġstr ugg
Ġcol our
Ġgra pes
o ld
Ġf ile
ĠZ ip
he ad
Ġbasket ball
B ye
p er
Ġcob web
Ġper m
Ġw ool
Ġmic rophone
es day
Ġey e
Ġle ash
Ġg asp
ie w
ke ep
Ġwe ep
ĠSp ike
Ġbark ing
at ure
Ġsaf ely
Ġte ar
ĠSn ow
Ġv iew
Ġslid es
of fe
Ġstep s
ist ol
offe e
Ġbanan as
Ġst aff
Ġsp irit
Ġt ask
Ġgigg led
Ġho c
ĠL ook
Ġhoc key
Ġv end
Ġth ose
Ġgor illa
Ġcool er
w as
c ing
Ġear ly
Ġmar ched
ro sc
was her
Ġfl our
Ġhot el
Ġsail or
ĠM ar
h ic
Ġph oto
rosc ope
Ġve hic
il ot
Ġ oft
Ġoft en
Ġch urch
Ġcook ing
Ġrem ain
ĠN ext
h in
Ġf ive
ĠMr s
ot ter
Ġsaus age
Ġt en
Ġtool s
S ee
Ġmed al
Ġe ither
Ġfire man
ch or
Ġgra ndpa
Ġ otter
Ġbase ball
Ġp istol
Ġpretend ing
Ġdish washer
Ġre ver
Ġorgan ize
Ġpe e
Ġvend or
Ġkn ock
Ġs ight
Ġg rill
Ġtemp le
Ġbatter y
Ġthin king
Ġopen s
Ġ ow
ĠK im
ĠGra ndpa
Ġreal ised
Ġ iron
Ġla ser
Ġsn e
Ġo il
Ġsand box
ĠU n
Ġpat ch
Ġh ours
Ġr ise
Ġwh ip
n e
' d
ctor y
ĠG ive
Ġan chor
Ġtra sh
Ġsk irt
en se
Ġsh ort
n ey
Ġr hin
Ġfa ctory
se um
Ġm ay
Ġwar d
at ely
Ġcard board
ug ged
Ġlot ion
Ġmess age
Ġval u
Ġward robe
Ġc ell
Ġmu seum
ap ers
Ġu r
in ation
Ġhang ing
e er
uc et
ail able
Ġh ive
Ġtow ers
keep er
Ġblack board
Ġme m
Ġexcite ment
Ġc offee
Ġp ilot
re ady
Ġnap kin
Ġpengu in
Ġche ck
l oo
r on
Ġre ward
Ġqu it
Ġcan e
Ġpick ing
pl ace
az or
Ġ ig
Ġfa ucet
Ġpass port
Ġst umbled
Ġdream ed
Ġig loo
en ny
ar oo
ang aroo
Ġfree z
Ġju icy
Ġall owed
pl ay
Ġhold s
Ġal ready
Ġav ailable
Ġset t
Ġbat he
ĠEvery where
Ġtorn ado
im ney
Ġfing ers
ht ray
Ġha nger
Ġnew sp
Ġs ize
Ġla und
Ġl end
Ġch imney
ĠBe fore
Ġlaund ry
Ġo ak
Ġfis her
Ġk angaroo
Ġm en
Ġtell ing
Ġno vel
bo dy
Ġm ummy
Ġp al
Ġmu le
Ġcher ries
Ġnot ice
Ġpract ice
Ġspill ed
Ġre ind
Ġcomplet e
Ġenjoy ing
Ġmic roscope
Ġg ain
amp oo
Ġsu b
Ġfire place
Ġimag ine
and a
Ġdis play
oc er
Ġfast est
Ġmagaz ine
Ġhur ry
Ġcabin et
Ġshr ink
ĠT eddy
Ġas htray
W ait
Ġcow s
g en
Ġpal ace
Ġimpro ve
ac hes
ar ian
Ġr ake
Ġreind eer
Ġfall ing
ile t
ocer os
ur ed
ĠM andy
Ġdiscover ed
Ġstar ed
Ġro ared
a id
Ġsil ver
Ġt ub
Ġtra il
Ġmin er
T here
c ome
Ġb ill
Ġf og
ict ion
Ġa x
st airs
Ġh ut
Ġhapp ier
Ġto ilet
Ġtall er
iction ary
Ġo ats
Ġfisher man
Ġob ject
Ġp or
v ision
Ġvalu able
Ġsh ampoo
ĠHe re
Ġho les
Ġoff ered
Ġboot s
Ġrhin oceros
Ġnam es
ĠDo lly
Ġclimb ing
Ġbl in
v ice
Ġstret ched
ie st
Ġzipp er
I s
Ġlisten ing
Ġs ym
Ġbath robe
ale nd
Ġjewel ry
Ġjoke s
Ġtele vision
Ġpro v
Ġc alend
Ġstop s
Ġax e
Ġjump s
Ġfu el
c u
Ġspark ly
Ġperf ume
Ġbu ry
bo l
Ġpress ed
O w
l u
ree k
Ġre ce
Ġne at
Ġc reek
Ġpo pped
Ġop era
Ġcalend ar
Ġsn ap
Ġatt ach
Ġgasp ed
Ġsym bol
Ġt una
Ġp apers
Ġun pack
Ġres ist
Ġd ictionary
Ġsub way
Ġletter s
Ġfreez er
Ġcho se
Ġpin ch
ĠM ike
z ag
Ġspo ke
Ġany way
Ġsu per
Ġhelp er
Ġpor ch
af fe
Ġbike s
Ġli e
ic hes
Ġcom fort
Ġtight ly
Ġsh aking
Ġbook case
ĠP andy
Ġs on
ĠA re
Ġr azor
aur ant
Ġsandw iches
ar ry
Ġ ext
ig zag
Ġwe igh
Ġagain st
Ġstick ers
Ġrest aurant
Ġnewsp aper
Ġbl ouse
t e
Ġvehic le
Ġswing ing
Ġp ed
Ġdis ag
Ġn ature
Ġsquirrel s
Ġbelong s
iv al
Ġswam p
Ġbutterf lies
Ġg ym
d el
Ġinc lu
Ġgrow ing
Ġbuck le
om ed
Ġstir red
Ġmust ache
Ġbill board
x y
Ġbe ep
Ġal arm
Ġli p
Ġfe st
Ġlight ning
Ġhun g
ut or
Ġdist ance
Ġc ards
og n
Ġob ser
Ġag ree
Ġte ase
Ġrec ogn
Ġrub ber
i k
Ġhat e
Ġs of
f ast
Ġdoes n
Ġmusic ian
Ġad vice
Ġfor t
Ġbee f
Ġser ve
O uch
asp oon
Ġsweet ie
e f
Ġmo del
l ter
Ġblue berries
Ġcri b
Ġsof a
Ġcir cles
Ġbreak fast
Ġt utor
as is
Ġbooks he
ĠE llie
Ġgir affe
st ri
Ġfest ival
Ġsepar ate
Ġshe lter
Ġg as
Ġair port
Ġo live
ĠC o
ĠD ave
Ġr ail
Ġbookshe lf
Ġfrog s
Ġte aspoon
Ġrever se
Ġj unk
Ġrid ing
Ġple ased
Ġdra in
Ġwip e
Ġo asis
Ġso il
Ġa head
Ġresc ue
Ġle aving
ĠB ill
um mer
ĠBu bb
Ġpain ter
Ġch ance
Ġsquee ze
Ġkn ob
Ġpo ked
Ġpee ked
Ġl umber
D ad
Ġtrain s
l a
Ġext ra
Ġsl ipp
ĠJohn ny
Ġqu iz
Ġre fused
re s
rm omet
Ġp age
Ġru les
Ġhappen s
Ġin s
Ġsound ed
Ġwin ter
Ġ V
Ġdanc er
Ġbird c
Ġdisapp ear
rmomet er
ĠC arl
Ġwas te
Ġwe ather
Ġli c
Ġbirdc age
Ġthe ater
Ġre ef
Ġcarry ing
ĠSp e
Ġinv ite
ĠB ow
if orm
Ġgo al
Ġo stri
Ġsw ung
Ġun iform
Ġtr ade
Ġcl iff
i ence
Ġlaw n
ol a
Ġlean ed
ang u
Ġacce pt
The y
ĠB oun
Ġadm ire
Ġaccident ally
Ġpast el
Ġst om
Ġl angu
ĠL ee
Ġtw ir
Ġs uff
Ġp anda
n a
r iger
Ġb et
riger ator
Ġpe ek
re nder
Ġblin ked
Ġstart s
Ġref rigerator
Ġany where
!" .
Ġimag ined
Ġdream ing
Ġrem ove
n ight
Ġshow er
Ġce iling
Ġclass room
Ġcar ing
ĠBu zzy
i um
ĠS oph
ĠW here
Ġgra nd
ĠJ azz
Ġmiss ing
a ked
Ġlic ense
Ġst able
Ġthe rmometer
ĠB ig
Ġmonkey s
ast ic
Ġwar ned
Ġs ummer
Ġab ove
Ġbri ck
ec ted
Ġc udd
m ed
ĠP at
Ġproblem s
am ber
Ġch asing
Ġap ron
Ġlab el
Ġs ent
it ure
urn iture
Ġlaw y
Ġl id
ugg age
ĠB inky
Ġrespect ful
Ġf urniture
Ġfrown ed
Ġzoom ed
Ġp ages
Ġpre vent
Ġb ent
ĠE ventually
Ġl uggage
ĠR ed
ĠL ola
Ġmistake s
Ġsun set
Ġostri ch
H e
is on
Ġsuggest ed
Ġwindow s
ation s
Ġj ail
Ġw ine
ĠFr eddy
Ġribb on
Ġold er
Ġshout s
Ġgra pe
Ġw igg
uc ture
Ġstr ucture
Ġspo il
e or
Ġfix ing
Ġch amber
Ġlion s
Ġdel ay
Ġfind s
Ġhand ed
Ġsearch ing
Ġun ite
Ġf ought
Ġlawy er
Ġbright ly
Ġmeet ing
Ġpa ir
D id
Ġcho ice
Ġar t
ĠHe l
Ġsurpr ises
Ġfav our
eter in
ad ium
eterin arian
Ġ Y
Ġst adium
l ow
Ġproud ly
ik i
ĠG eor
Ġv eterinarian
v et
Ġchair s
Ġsl ip
ro d
A nn
Ġsad ly
Ġinc re
Ġpudd les
Ġb erry
Ġint rod
Ġran ch
ve al
Ġarg ue
Ġadm ired
ĠO live
Ġc ur
Ġfavour ite
ĠP a
Ġin f
You r
Ġexcited ly
Ġr ac
Ġgrab s
m end
Ġste am
th ank
Ġhum an
ĠR u
s ity
ĠSpe edy
Ġpus hing
Ġsa ving
Ġre veal
om mend
Ġy ield
all ey
ol og
Ġm all
Ġremind ed
Ġrec ommend
Ġle ak
Ġsur render
Ġhar b
Ġapp l
cu ss
Ġwe ap
Ġreg ret
Ġput ting
Ġv alley
ĠBubb les
ĠGeor ge
ĠL illy
Ġminer al
Ġeven ing
el come
Ġforg ave
Ġmat ches
Ġsnee zed
Ġa w
Ġpu p
Ġr ushed
ec ause
Ġsp ade
Ġap olog
Ġpl ates
Ġdis cuss
Ġprep are
Ġharb or
Ġign ore
ĠO w
Ġcount ry
Ġlangu age
Ġpull s
Ġpl astic
Ġsupp ly
Ġflo at
Ġsniff ed
Ġrepl ace
Ġme as
Ġsho vel
Ġra ise
Ġstri p
Ġf re
Ġcar ed
Ġso cks
Ġdoor s
Ġmyster y
Ġli ves
Ġrest ore
Ġstick er
Ġs udden
er o
Ġkind s
ĠPa ul
Ġslipp ery
Ġplay er
ĠZ oomy
Ġpan ic
Ġhop ing
ĠU nder
ric ane
id ay
Ġsh one
le x
ar i
her o
Ġbe g
Ann a
Ġsuper hero
ĠK iki
Ġdelight ed
Ġg ro
au d
ch an
Ġchick ens
ĠCh arl
Ġshould er
Ġrain ed
Ġcolour ful
Ġbre at
Ġcla w
Ġsoft ly
r ise
Ġp ort
Ġho l
ic er
Ġhol iday
o of
Ġbark s
as on
Ġthrow ing
Ġplan es
Ġb end
Y ay
Ġshake s
o e
Ġend ed
Ġinf ant
Ġshiver ing
Ġkne el
Ġsun rise
Y uck
Ġpus hes
Ġthank s
Ġfre sh
Ġsuff er
Ġpoint s
im ed
w ards
Ġt ip
Ġfree ze
Ġkeep ing
ĠW ould
Ġco pper
Ġgigg le
ĠA lex
Ġsmell s
Ġde ar
Ġent er
Ġprov ide
ĠE nd
c ast
chan ic
Ġdis hes
co nd
Ġun h
Ġappl aud
Ġhead s
Ġhur ricane
ĠT ed
Ġcher ry
Ġm ass
Ġth umb
Ġme owed
Ġmen u
Ġse cond
Ġbright er
in ce
Ġsand cast
Ġme chanic
M ia
Ġw re
ĠDan ny
Ġspray ed
Ġe vent
Ġlet ting
Ġweap on
Ġlaug ht
Ġ x
Ġlaught er
ĠGra ce
Ġcla pping
Ġfeel ings
ĠO r
ick y
Ġsplas hing
em ent
ac ked
Ġcast les
ĠJo ey
O ne
c er
Ġsc ore
app ing
Ġuniver se
Ġn avy
ĠH oppy
Ġd em
Ġstick y
Ġr ow
Ġroom s
Ġfl ies
ig i
Ġunh appy
Ġgre edy
ĠSoph ie
Ġd are
Ġal ive
Ġbreak s
Ġen er
ĠB ee
Ġcou rage
Ġinv it
Ġrepe at
Ġdem and
Re ady
ĠG igi
Ġtrust ed
Ġsome where
Ġprun e
b les
Ġwre ck
Ġsk ill
Ġexam ine
Ġpart s
ĠH en
y ear
Ġeat en
er c
Ġm ention
ĠHel p
Ġrain ing
ĠAnn ie
Ġthrow s
Ġjog ged
que st
Ġstar ting
Ġr ush
ĠCharl ie
ĠS que
Ġch irp
Ġpo ison
Ġpir ates
he art
Ġv ac
Ġcont ent
ĠS u
Ġs igh
Ġfl apped
Ġdrop s
Ġsp ort
Q u
Ġspark led
ĠHen ry
Ġgi ven
Ġstre ng
Ġste el
Ġbump ed
Ġyaw ned
Ġstu d
Ġre quest
Ġsco ld
Ġmy self
Ġstreng th
Ġshr ugged
Ġcoat s
Ġpun ish
Ġe qu
Ġsn ugg
ĠS m
Ġuniver sity
Ġpa id
Ġpig s
Ġscr atch
Ġto e
Ġex erc
Ġtra cks
Ġup stairs
Ġpray ed
Ġcross ed
Ġsquee zed
Ġfl ood
Ġimpress ed
Ġex pect
Ġboun cing
Ġr hy
Ġrabbit s
g es
Ġbad ly
. .
Ġle ather
Ġwar n
Ġnew s
Ġt ide
ĠL ucky
Ġmin ute
ĠSnow y
Ġbear s
Ġclaw s
Ġbu zz
Ġsweet heart
Ġn ation
ĠS k
th m
Ġhe at
Ġhis t
Ġvac ation
Ġstraw berries
Ġobser ve
Ġexplor ed
Ġsett le
Ġsandcast le
Ġyaw n
Ġhist ory
ĠFin ny
m are
ĠS ee
ĠFin n
i ally
in king
Ġbelie ved
Ġhor ses
ĠE lly
Ġche cked
Ġto ur
Ġnet work
Ġchee k
Ġoff er
Ġeas ily
Ġpl aced
s pec
Ġspot s
Ġsnow ball
we en
m en
Ġener gy
Ġimag ination
Ġblue berry
ott en
Ġbet ween
spec ially
iz es
Ġd aisy
Ġwa ving
ree ze
re at
ĠH arry
ĠFo x
ĠT illy
Ġv room
Ġso ak
Ġsaf ari
Ġrhy thm
Ġmass age
Ġstom ach
Ġb aking
qu ake
Ġnight mare
Ġins isted
Ġblow ing
Ġent ered
Ġst air
Ġp alm
Ġbeaut y
Ġtw isted
Ġb other
Ġwr iting
Ġsc oop
Ġprun es
Ġbra in
Ġ ing
ĠP enny
ip ment
Ġpo ppy
Ġhill s
n oon
Ġafter noon
Ġe specially
Ġequ ipment
he st
Ġs ir
Ġp ad
Ġing red
Ġcall s
Ġingred ient
Ġearth quake
Ġignor ed
Ġburn ed
Ġno body
m ble
Ġst y
ap a
Ġse w
Ġt ug
is ty
Ġheart s
xy gen
Ġle ar
Ġlear nt
Ġlemon ade
S h
Ġincre ase
ĠMar ia
Ġg az
Ġback pack
Ġmail man
Ġwhist led
Ġped al
Ġshop keeper
ff ic
Ġperm it
Ġtre mble
ĠM ill
Ġy ucky
ang es
Ġmove s
ĠZ ara
Ġintrod uce
Ġlem ons
Ġcra sh
Ġbean s
ĠM ag
Ġflo ated
ed n
edn esday
itten s
ĠW ednesday
Ġplan ned
ĠCo co
W elcome
ĠR os
Ġstri ke
Ġtra ffic
L ucy
Ġinclu de
Ġsl ap
Ġrac ing
res ses
ĠWhen ever
Ġwis dom
Ġp ur
Ġwag s
la imed
Ġl uck
Ġfollow ing
Ġpri ce
ec ting
Ġm ama
Ġp itch
Ġbel ow
ĠH ave
ĠS andy
ĠP ip
ĠSque aky
Ġwe ight
Ġexc laimed
h ouse
ĠOw l
uc t
Ġbu ried
Ġcom f
Ġfollow s
Ġrecogn ize
Ġingredient s
ĠFr oggy
ĠM ittens
ĠD og
Ġf urt
t ain
Ġcand les
ĠBoun ce
Ġmar bles
ri age
und ay
em ember
er ation
ĠS unday
Ġap art
Ġgrowl ed
ĠI s
ĠWh o
ore s
Ġcon f
Ġhop es
Ġteach ing
Ġfold ed
Ġclose ly
Ġhe el
Ġencou rage
ĠK ate
Ġz igzag
Ġpull ing
Ġd igg
Ġboun cy
ĠMill ie
i ppy
Ġfurt her
Ġchew ed
Ġdigg ing
Ġwin ning
n ce
W oof
Ġd resses
Ġim age
re c
c ery
Ġshout ing
ĠR ock
Ġgro cery
Ġtw isty
S ara
Ġpeanut s
Ġpuzz les
ĠJ ames
bb ing
l ook
Ġscr at
Ġch ores
Ġwhisp er
Ġsp ike
Ġc ape
Ġsn ail
Ġacorn s
Ġworm s
h ood
ĠT w
Ġdeep er
Ġur ge
ĠP inky
if i
ĠR o
ĠT ony
ĠBlue y
Ġplan ted
Ġatt ention
ec ture
Ġexerc ise
ĠB aby
ĠP apa
Ġexp er
Ġcu b
Ġop eration
Ġunder ground
Ġh on
Ġag re
Ġqu ite
Ġcreature s
Ġs imp
Ġstrugg le
or al
dd y
Ġbl ood
Ġl ecture
ĠF ifi
Ġwas hing
ĠM ay
Ġhurt ing
Ġgift s
Ġvan ished
ĠSh aring
Ġdress ed
Ġinvit ation
Ġsol ved
Ġli cks
Ġsnugg led
ĠRu by
Ġb le
Ġmar riage
Ġquiet ly
g ie
T o
Ġwar ning
Ġj azz
Ġbreat he
rec i
Ġelephant s
ĠT u
Ġs izes
B ob
Ġd ried
Ġfall en
Ġland scape
or ies
Ġspr ink
Ġneighb our
Ġm ice
Ġapp reci
ĠTu esday
ĠâĢ ĵ
Ġeag erly
Ġsail ing
ĠG ood
Ġpa used
ip s
Ġcount er
A nd
Ġwor th
look ing
ĠL iz
ĠF irst
Ġo xygen
Ġre lease
Ġshin ed
p ted
Ġre aches
Ġbal an
is ses
Ġo h
Ġk isses
Ġsty le
Ġbri cks
Ġplay s
Ġgl o
Ġide as
s ed
Ġin st
ĠSt e
Ġw ob
Ġfirework s
W ill
ĠK at
ĠEvery thing
igg ly
uc ked
Ġsee ing
Ġfl ap
Ġacce pted
Ġbl ink
m m
Ġtre mb
Ġmu ddy
Ġmem ory
Ġmar ried
Ġtomato es
Ġex it
The se
op s
Ġwag ging
Ġfa sh
ĠJ ul
Ġwander ed
un ately
ipp ing
r ight
Ġglo ves
ĠE ach
Ġcap tain
Ġpillow s
Ġrece ive
Ġres p
ra ged
Ġd uring
N ot
et ch
Ġwe b
Ġpet als
Ġwater ed
B ecause
i ved
Ġman age
ĠRos ie
Ġbr ings
Ġpin ched
Ġcake s
Ġvan ish
Ġfash ion
Ġprin ter
Ġdestroy ed
ĠA b
Ġtreasure s
Ġall ow
ĠCl ara
up s
Ġhad n
Ġwor se
Ġve l
Ġhit s
Ġb ur
d o
x u
Ġvel vet
Ġapp ear
Ġdisag ree
Ġcatch ing
Ġscatter ed
Ġmem ories
Ġsort s
Ġher s
Ġscold ed
Ġpe ars
Ġor anges
Ġsign s
Ġb ones
Ġran g
Ġsn apped
Ġsit s
Ġseat s
ĠUn cle
u xu
Ġgaz ed
Ġra ised
ĠSp ark
ĠW iggly
ĠP r
Ġs i
ĠGo d
Ġz ipped
Ġp ies
Ġprint s
Ġsh ot
Ġslid ing
Ġfr o
Ġeas ier
ss ible
Ġskill s
urpr ise
Ġclimb s
Ġtwir led
Ġblanket s
Ġforg otten
Ġba ked
e ster
Ġdiffere nce
ester day
Ġl uxu
or ted
Ġgold en
c cer
Y um
is ing
Ġk itty
Ġcut ting
Ġse ason
Ġnow here
Ġcr ow
ĠW ally
Ġso ccer
Ġd ared
a h
Ġbit es
Ġl ung
Ġcelebr ated
ch oo
ch ie
Ġstra ight
Ġunl ocked
st ers
ĠM e
ĠA n
Ġsor ting
Ġcoll ected
Ġble ed
ĠM oral
ap ed
d ing
Ġwelc omed
Ġvis ited
Ġspoon s
ĠO ut
Ġour s
Ġst itch
ĠMag gie
Ġjog ging
ĠT una
med i
Ġem er
medi ately
Ġis n
Ġto ng
Ġtra ve
Ġwin ner
um ble
S urprise
Ġs ince
Ġru in
Ġpret t
O k
Ġatt ached
ĠK ing
Ġweep ing
Ġmarch ing
Ġluxu ry
Ġsimp le
Ġshould n
Ġguess ed
Ġz ero
Ġcre ated
Ġstuff ed
Ġpet s
ĠSm ith
ct ion
Ġwa ist
Ġfam il
Ġur ged
Ġbow ed
Ġsell ing
ĠG r
Ġflo ating
ĠSu zy
Ġby e
Ġv ict
Ġking dom
Ġolive s
Ġkick ing
Ġpun ished
s it
Ġ Qu
ĠB o
Ġto es
Ġgr ant
Ġmus cles
Ġjewel s
Ġbed s
Ġmel ted
Ġsl ice
Good bye
Ġgr in
Ġunderstand ing
r r
Ġcollect ion
Ġto re
Ġmeas ured
Ġcra s
ak er
ĠB oth
ĠS low
i ers
Ġtra pped
omed ay
ĠD r
Ġl ined
' ve
Ġac ted
fort unately
Ġencou raged
v a
Ġrece ived
Ġwaff les
ĠC he
Ġwe st
Ġme ow
ent s
Ġpattern s
ĠD in
ĠB oo
Ġbr us
Ġmouth s
k ins
Ġb ang
r ing
Me ow
Ġpe aches
Ġb reeze
ad ed
un e
Ġprin ted
Ġsold iers
Ġs omeday
Ġpotato es
Ġpup il
um es
Ġres ult
Ġdrink s
Ġshe d
Ġexper ience
Ġpresent s
Ġfire f
Ġsur round
Ġn one
Ġvoice s
os ed
Ġdr inking
is hing
Ġrelax ed
Ġvict ory
c us
Ġbre aking
Ġpaint s
Ġhur ried
Ġtw ink
iss ion
Ġtong ue
e ep
Ġcost umes
Ġfl at
Ġmention ed
Ġbeg ged
Ġte asing
Ġwhist ling
Ġf etch
Ġperm ission
Ġs ip
Ġdisag reed
ĠThe se
Ġpe arl
Ġs ix
ĠT oto
A my
ake s
Ġstr o
ve st
ĠRock y
Ġe sc
Ġapp ro
Ġsk ipping
Ġfis hing
Ġhig hest
Ġp ra
Ġwat ches
Ġsor ted
ĠCh icky
Ġring ing
sh ip
Ġto night
Ġop in
Ġlet s
ic ing
N ext
Ġperfect ly
Ġshadow s
Ġim mediately
Ġherb s
Ġwarm th
Ġsp it
Ġremain ed
ĠIt s
t her
w alk
ĠPe pper
irr ing
Ġsne ak
Ġlip s
Ġkneel ed
ĠM illy
Ġcont est
ut ter
Ġcartoon s
M r
Ġside walk
Ġcol ours
Ġstamp s
ĠFo llow
Ġag o
Ġe ast
Ġhead ed
o ved
" ,
Ġstr ang
H a
Ġf ed
Ġlady b
Ġsupp osed
ĠSk y
Ġli ck
Ġroot s
Ġcr unch
ĠH op
ĠDin o
Ġmix ing
Ġwork s
Ġdecor ations
Ġkn own
Ġmelt ing
Ġemer gen
Ġrest ed
Ġl ines
Ġl ily
Ġinst r
Ġla id
Ġcon es
Ġsucceed ed
Ġwigg le
et y
s ing
Ġsh ock
Ġset ting
ĠFr ank
Ġstud ied
Ġstrang ers
ĠZ igzag
Ġtwig s
Re ally
Ġbr id
Ġtheir s
Ġgirl s
b oo
!" ,
Ġscream s
Ġland s
Ġord ered
ĠHow ever
Ġst irring
Ġmoment s
Ġfield s
Ġal right
Ġsteal ing
d ed
Ġr ul
Ġbrave ly
av id
Ġm ister
! '
Ġin vest
Ġscrat ched
Ġplay time
Ġri pped
Ġinvest ig
Ġt ucked
Ġrest ing
Ġburn ing
is hes
ĠM o
Ġbrid ges
Ġt ext
ĠA m
Ġoff icer
p lease
ĠSte ve
ab ies
ĠD avid
Ġsett led
Ġa chie
Ġmat ched
ĠSome one
Ġtext ure
Ġturn ing
Ġwait s
or ed
Ġtremb ling
ist en
Ġnail s
Ġmuff ins
ĠUn fortunately
id s
Ġesc aped
Ġpile s
Ġinvestig ate
Ġbro om
os ity
Ġladyb ug
Ġso re
ĠH appy
Ġadm ir
Ġappreci ate
ĠL izzy
Ġth reat
Ġb abies
Ġsil ence
Ġsister s
Ġare a
Ġemergen cy
id es
Ġdad s
ĠSlow ly
ĠFr og
Ġansw ers
Ġpu pp
L ittle
Ġkey s
ĠH ope
Ġchew ing
Ġsl apped
Ġw iz
Ġimport ance
Ġser ved
Ġsaf ety
ĠB ug
iz ing
ĠR abbit
W ould
ĠKat ie
Ġspark le
Ġtouch ing
Ġso ared
ig ail
Ġs ings
Ġhe n
all en
b ers
ant ly
Ġkeep s
Ġamaz ement
Ġch allen
ĠE l
Ġhe sit
Ġtw in
Ġreveal ed
an na
ache l
Ġd ire
Ġit em
Ġso aked
z ing
Ġwr it
ĠAb igail
Ġfood s
Ġdinosaur s
Ġrid es
ĠR achel
Ġrecord ed
Ġtick le
Ġin ch
Ġwiz ard
Ġv et
Ġtrip s
Ġglow ed
ĠSomet hing
ĠM at
ĠN ot
M mm
Ġh i
Ġbe amed
Ġqu ack
Ġcur led
Ġha ted
Ġw ink
Ġsho pping
Ġeat s
ĠBe ep
Ġpra ised
Ġwood en
Ġbring ing
Ġmitten s
Ġstudy ing
Ġgu y
H appy
in t
Ġbrus hes
ĠA unt
Ġspace ship
Ġg ust
Ġcraw ling
ĠJo y
Ġrul er
Ġfl av
Ġdown stairs
ĠZ oe
Ġshoot ing
Ġn apping
Ġtast es
ĠSt ar
Ġmark s
Ġsprink les
Ġcudd led
Ġd ot
he llo
Ġf ut
a les
a ved
Ġfut ure
Ġmon sters
Ġcoll ecting
Ġmeas uring
' .
Ġfamil ies
K itty
Ġth rill
Ġo at
Ġappro ached
a ct
Ġcrunch y
Ġrem em
Ġbleed ing
Ġremem bers
ĠH o
Ġn icer
Ġbe at
ĠJ ess
i bb
Ġsne aky
Ġdisturb ed
Ġlead er
ĠBe h
Ġsc aring
ĠR ay
Ġpe el
Ġfire men
ĠD id
Ġneighbor hood
Ġgre y
B oo
Ġmot ion
Ġno on
Ġpo ssible
Ġapolog ized
ĠBeh ind
O r
Ġwe ighed
u es
ĠS ad
Ġticket s
Ġnap s
W hen
Ġloo se
J o
Ġpr ide
Ġyou th
ĠS qu
Ġswim s
p ed
Ġstr ings
Ġrecogn ized
Ġsi ren
Ġpo king
f ied
S he
c ious
h a
el vet
Ġtri cked
Ġwonder s
Ġgain ed
Ġwant ing
Ġcras hed
Ġo be
Ġsees aw
Ġwork er
unn ies
ĠJ am
om ing
Ġdraw s
Ġscoop ed
. '
Ġzoom ing
Ġopin ion
Ġyell ing
ĠV elvet
Ġprep ared
ĠPipp a
Ġgrin ned
Ġa we
ĠF riend
Ġdog gy
Ġpoem s
Ġact ing
Ġhapp iest
ĠAl ways
Ġche f
Ġsne aked
Ġresp ons
Ġe ff
ĠC ar
Ġb unnies
Ġown ed
ĠJ e
Ġany time
Ġstr uck
Ġped als
en a
Ġkn elt
oy s
ĠN an
Ġsecret s
Ġp ause
Ġdecor ated
Ġhorn s
Ġagre ement
ĠRob by
id ed
Ġfr ost
ĠD uring
Ġtall est
Ġobe y
ĠJ u
ĠCh r
og o
ĠSt op
ĠB y
R emember
Ġdecid es
H ave
ĠJ an
Ġbeh aved
Ġt ugged
Ġgr an
Ġs ides
Ġwo of
Ġsl im
z en
Ġgood night
Ġkeep er
Ġspark ling
Ġchirp ed
Ġpre cious
m other
i en
l ier
Ġrepe ated
Ġclap s
ind y
Ġcont ain
aff es
Ġsnowball s
r s
Ġour selves
ĠSt itch
ĠB ree
all ow
Ġgir affes
Ġbalan cing
Ġkind ly
ĠL ike
Ġspend ing
om as
Ġwrit es
ay s
pp ers
Ġpr op
ĠBoun cy
Ġhis sed
ĠA d
Ġfro zen
Ġfrost ing
Ġeff ort
ĠSp l
Ġbuzz ing
Ġstrugg led
u d
S ally
Ġadmir ing
Ġre le
Ġsweet ies
Ġslim y
Ġbr ushed
ĠG ogo
ĠBird ie
Ġbloom ed
Ġpol ished
ĠD are
A l
ĠTh omas
Ġcomf y
Ġb oo
Ġstay ing
ĠG reen
Ġru bbing
Ġrock ing
Ġpocket s
Ġthrill ed
Ġbe side
ĠA va
Ġcomp le
Ġe ight
is dom
ur ry
Ġmach ines
ig gy
Ġear lier
Ġy esterday
Ġseem s
Ġr ust
ĠJul ie
ĠO lly
ĠK eep
Ġtrave led
Ġfold ing
Ġbo om
Ġcra cked
it ies
Ġhug ging
A h
Ġrad ishes
Ġlo ving
Ġopen ing
Ġcir cus
Ġcuri osity
Ġsurround ed
Ġspray ing
Ġdemand ed
Ġpaint ings
Ġrem oved
Ġg aze
o h
Ġhon k
Ġpebb les
Ġhard ly
Ġzoo keeper
Ġcat ches
ed ding
Ġst ing
Ġstri pes
Ġpow ers
Ġload ed
Dad dy
Ġpot s
Ġsplas hes
Ġpet ted
Ġmatch ing
Ġto ss
Ġbe lly
Ġst are
ĠB eth
Ġwhat ever
Ġapolog ize
Ġro cked
Ġcomf orted
ĠEvery day
Ġdec ision
Ġribb ons
er n
Y ummy
Ġstrugg ling
C h
Ġex pected
Ġste ep
ĠJam ie
Ġprot ected
Ġneighb ors
Ġsmile y
Ġchase s
ĠL ou
Ġgran ted
Ġcr umb
ĠW ater
Ġpur red
Ġdi ving
ĠA bby
Ġsad ness
Ġorgan izing
Ġeag le
Ġhero es
Ġd ipped
ĠSp ring
Ġsun light
Ġli ed
Ġpastel s
ĠN ina
ĠB ecause
Ġroad s
Ġsaf er
Ġscr u
Ġarg ued
S omet
Ġgo als
Ġdisco very
ĠS ure
Ġpe ered
Ġvill ag
Ġdes er
G ra
ĠSpl ash
l oe
u se
Ġt im
Ġdrag ons
ĠM ir
ĠL u
Ġbuild ings
Ġbucket s
Ġpart ies
Ġbe ard
ĠW isdom
Ġw edding
Ġfl utter
Ġplanet s
Ġan n
Ġpol ishing
Ġfa sc
ĠF or
Ġrele ased
ĠW atch
Ġcrab s
Ġtail s
Ġsaus ages
ĠCl a
Ġar gu
B ird
Ġcont ro
Ġbott les
Ġwigg led
Ġte ased
ĠZ ero
Thank s
Ġargu ing
Ġsl ed
Ġdrag ged
Ġpad d
ĠCh loe
Ġro aring
ĠJo sh
Ġcle aring
Ġshirt s
Ġmov ies
Ġgather ing
Ġair pl
Ġw id
joy ed
ĠR emember
Ġteac hes
Ġspid ers
Ġl imes
Ġover joyed
Ġact ually
ĠH ippy
Ġsigh s
Ġcontin ue
an ny
Ġcudd le
Ġso aring
Ġsmall est
ĠO l
ĠK ay
Ġdri ves
Ġri p
Ġspark les
Ġsit u
Ġcub es
Ġref res
Ġtal ent
Ġchallen ge
Ġgrand mother
um m
ĠM oo
Ġpour ing
Ġpretend s
Ġfasc in
ĠH anna
Ġcut s
Ġb ank
Ġpe ppers
Ġquarrel ing
Ġman e
ĠBe ing
Ġshiver ed
t en
Ġ X
Ġdust y
i b
le y
Ġwonder ing
Ġvillag ers
Ġstretch ing
n joy
Ġweek s
Ġwhere ver
Ġdark er
j am
s ses
Ġr ings
Ġon wards
Ġun ited
ĠB op
A choo
Jo hn
Ġbe ad
Ġprett iest
Ġc aut
low ers
Ġreal ize
Ġcomp any
Ġpengu ins
ĠCat ty
Ġbed time
Ġcomple ted
ĠLe ave
âĢĿ .
Ġknight s
Ġcontro l
Ġflag s
Ġplay room
Ġact ions
ĠPr in
Ġlearn s
Ġgot ten
Ġpat ience
ind a
Ġshr ug
ĠF ish
Ġkit es
ĠTw o
ĠL ena
Ġrespons ible
Ġfe ars
Ġdest ination
Ġwire s
Ġrep ly
Ġd am
Ġwr ist
ĠAnn e
ĠChe w
aw s
ĠE arth
Ġpack ing
Ġfa ult
Ġmountain s
Ġapplaud ed
Ġm a
Ġscru bbed
Ġcre pt
U h
Ġsat is
F l
ĠC ra
M ama
ĠAd am
Ġth ird
Ġph ot
Ġpencil s
Ġwin s
Ġstick ing
Ġb aker
Ġvisit ing
Ġw ound
Ġpe as
Ġuse s
Ġremind er
as hed
ĠP ut
Ġjo king
Ġaw ake
Ġinstr uct
Ġstar ing
Ġheal ed
ĠBl ink
Ġh itting
ĠFriend s
Ġscream ing
Ġbeg in
ĠL uck
ĠBrown ie
ic orn
ĠM ad
Ġhelmet s
ent y
Ġun icorn
l er
se ek
Ġtowel s
ĠLuck ily
M um
ĠHanna h
Ġch ips
ic a
Ġcre ation
Ġwas ted
Somet imes
J ust
b ie
Ġmask s
Ġforg i
Ġitem s
ĠS un
Ġfiref ight
Ġout do
Ġlollipop s
Ġhe av
ĠMir a
W atch
Ġgun s
Ġd ied
Ġse as
Ġgl itter
ĠPrin cess
ĠM ouse
ĠM on
udd les
Ġarri ve
ĠCla ire
S illy
Ġwere n
Ġsto le
Ġsc ales
d ie
Ġper ched
Ġac com
ĠL ove
Ġlog s
Ġachie ve
Ġpract icing
in ing
Ġwho se
Ġpump kins
Ġinstruct ions
Ġsw oop
Ġbatter ies
Ġcand ies
Ġagre es
Ġpro ject
Ġsnake s
Ġchirp ing
ĠJ illy
Ġshe lves
Ġprot ecting
ĠHo ot
Ġex act
Ġpar ked
St ay
Ġpatient ly
Ġact iv
ĠA lly
Ġshould ers
Ġvide os
Ġblow s
Ġprom ises
g o
Ġd ent
ĠMat t
n ers
ue st
Ġexam ined
Ġairpl ane
jam as
ĠFo xy
Ġro ses
he e
Ġaccom pl
Ġtask s
ĠSqu irrel
ĠSus an
Ġbead s
Ġbowl s
Ġcrumb s
z es
ĠD ot
ĠWh ist
Ġlisten s
Fl uffy
Ġb unch
Ġdolph ins
Ġc ough
Ġg uest
To day
E x
ĠC uddles
c akes
Ġrequest ed
Ġrem ote
Ġimpro ved
ĠB ye
ant a
Ġbra nd
Ġreach ing
Ġal ien
ir m
Ġcop y
ĠQu ick
Ġcheer ing
M ummy
ĠJe ff
Ġphot os
Ġcan s
Ġben e
Ġtim er
Ġrepl aced
Ġwork ers
Ġst ern
ĠE njoy
Ġad ult
B ad
Ġne ither
ast er
Ġpass ing
Ġmis ses
Ġpupp et
Ġcurtain s
Ġconf l
Ġrainbow s
Ġtwir l
Ġrub s
Ġroll s
uct antly
ĠLu ke
ĠJ essie
Ġpat ted
Ġconfl ict
il o
Ġpa jamas
Ġoutdo ors
es ome
d ies
Ġcomplain ing
ĠD izzy
Ġclose s
Ġbene ath
Ġla p
Ġdrum s
R un
Ġt une
ĠS anta
R o
Ġfill ing
ĠS orry
ang led
Ġref use
Ġswe at
Ġfa ced
.. .
Ġse ven
Ġbalan ced
Ġ 1
Ġresc ued
b l
Ġqu acked
ne ath
ĠD ays
ĠO ur
Ġaw esome
Ġ Yes
Ġmiss ion
Ġguy s
Ġcaut ious
Ġc ause
Ġv ent
Ġobser ved
C at
Ġintrod uc
Ġpast ries
n ie
Ġdoctor s
Ġexact ly
Ġru le
ĠH enny
Ġbec oming
Ġm es
Ġpolice man
l ay
Ġrocket s
u ly
y ou
Ġfair ies
Ġp out
ĠL inda
ĠJ ac
Ġins ist
Ġbloom ing
Ġtra ctor
Ġfar ther
Tom my
av i
O ops
Ġdes ert
Ġremember ing
Ġinclu ded
Ġcur ly
Ġteam work
z ie
G reat
Ġfascin ated
Ġsl am
Ġwob bled
Ġtr uly
Ġhelp ers
F ine
Ġsight s
Ġpad dle
Ġf irm
Ġst umble
Ġca used
Ġpray er
ĠJen na
T hen
Ġsp ong
Ġrecord ing
ke lly
e ah
Ġstar fish
Ġtr aded
ĠS c
Ġsupp lies
Ġth ro
Ġpoin ty
Ġinv iting
Ġsitu ation
g ers
Ġevery day
Ġneighbour hood
Ġornament s
ĠA nt
ĠWhist le
ink le
Ġval ued
Ġadd ing
a is
Ġrel uctantly
ĠRo ver
Ġdot s
Ġstay s
Ġb are
Ġtable s
Ġprett ier
ĠM ix
ĠS kelly
ĠJ on
Ġsnow men
ĠJac ob
Ġste ady
Ġminer als
ĠG ina
ara way
ĠM ilo
Ġth orn
ĠG et
Ġa st
ĠW elcome
Ġf araway
Ġgl asses
ĠD uck
ĠP o
Ġ ĠĊ
Ġswoop ed
ĠBet sy
Ġun f
Ġfork s
Ġus ually
Ġus ual
Ġd ar
Ġwin ked
Ġsnee zing
Ġsol ut
ĠD ara
Ġload ing
Ġspong e
Ġinsect s
ĠD ee
o dy
Ġpan s
ĠSt ay
Ġso bbed
Ġgrowl ing
s m
Ġthro at
Ġno ses
ĠW ant
ĠK ids
Ġscar ves
Ġconf ident
Ġyour selves
ar ter
ag ull
ĠSu zie
Ġhome work
Ġsuperhero es
ĠAs h
Ġsm arter
Ġwind y
Ġlibr arian
Tim my
Ġgem s
ĠF u
or a
Ġunder neath
Ġkick s
Ġknow led
Ġitch y
Ġjacket s
Ġknowled ge
ĠZ iggy
Ġsurf ace
Ġunt ie
Ġcom m
ĠQu ack
Ġprince sses
T ime
.. ."
id o
Y eah
c oon
ĠP aws
Ġsquare s
Ġgigg ling
Ġwarn ings
i ar
Th ose
Ġread s
v in
Ġch oo
Ġyou nger
ĠDo do
Ġclown s
s on
Ġro pes
ĠW ink
O ur
ĠSad ly
H old
Ġbit ing
L e
Ġcrow d
p ite
Ġse agull
Ġpadd led
Ġwear s
Ġdeliver ed
Ġon ions
Ġbuzz ed
Ġcomplain ed
e ed
Ġb umpy
Ġst em
E w
Ġpig gy
ĠSk ip
ĠJ ones
Ġdire ction
ou ch
Ġdi ved
Ġstart led
Ġt angled
Ġlean ing
bb ie
p r
Ro ar
ĠF ido
Ġbad ge
ĠY esterday
ĠNan a
ĠJess ica
F o
Ġde al
Ġun p
th ough
ĠBug gy
Ġv owed
Ġnap kins
an es
Ġr isk
Ġtick led
Ġcover s
Ġp ec
Sh h
ĠC ara
Ġyell s
Ġsatis fied
ĠN ear
Ġknock s
Ġrefres hed
t uce
cu se
Ġc ous
ĠCat hy
Ġarrow s
Ġwip es
Ġspe aking
Ġlet tuce
Ġguess ing
ĠC indy
Ġri pe
Ġhid es
Ġchoice s
ĠL ion
Ġsign ed
Ġslow er
Ġseek er
Ġintroduc ed
ir l
ĠKay la
Ġsing er
Ġcreat ing
ĠT ara
Ġc ent
Ġfro ze
ugg les
Ġjo ked
Ġsque al
Ġexplore rs
Ġtoast er
ĠJul ia
ĠM el
Ġav o
ang ing
Ġpray ing
Ġwr itten
Ġdiscover ing
Ġprov ided
Ġref le
Ex cuse
J ack
Ġmushroom s
Ġkne es
Ġpay ing
f it
Ġhid er
ence s
Ġwander ing
ĠR olly
Ġimag es
Ġst ung
Ġmagnet s
Ġbare ly
Ġbeh aving
Ġtip to
?" ,
Ġmar ked
ĠSn uggles
br ush
D og
ĠGr umpy
Ġrest ored
Ġlead ing
ll ed
Ġch uck
ĠOl iver
Ġn ine
ad os
Ġgre et
Ġbra very
Ġgear s
Ġcompetit ion
Ġout fit
ol ine
Ġwis hing
Ġprop erly
Ġvent ured
a a
t le
Ġch at
Ġdance s
Ġmus cle
Ġpen s
Ġsal ty
am b
ĠMike y
Ġran ger
Ġdeser ve
Ġhow ever
rr r
se qu
Ġmatter s
Ġdark ness
Ġbur st
Ġrain y
Ġcobweb s
Ġruin ing
Ġchef s
Ġb ak
Ġcon sequ
Ġblock ing
ust ed
it ely
Ġsc ur
Ġv ines
ĠCo pper
Ġfa b
ab el
Ġfab ric
Ġent ire
Ġbase ment
Ġle ast
Ġperform ed
ĠL aser
Ġscrat ches
Ġheav ier
C l
Ġmint s
Ġavoc ados
Ġtwir ling
f l
r ink
ĠJ ay
Ġlo sing
Ġscur ried
Ġsunf lowers
Ġrain co
Ġsword s
Ġcl ick
ĠNot hing
Ġjob s
Ġsil ent
Gra ndma
Ġfl ames
Ġnecklace s
Ġrelie f
ĠSn ap
Ġsn at
Ġrot ting
Ġsew ed
Ġtrick y
Ġlight er
ĠWith out
L isten
Ġbow s
Ġex ha
ĠP up
Ġsolut ion
Ġconsequ ences
l en
Fo llow
h o
Ġst ain
Ġtire s
Ġunp acked
r ance
ĠE x
ĠL arry
Ġpart ic
Ġrace s
Ġp ins
Ġbump s
Ġwrap s
ĠSoph ia
Ġw ow
Ġb acked
Ġdecor ating
ais ies
c her
Ġdent ist
Ġneed les
Ġpur r
Ġcautious ly
Ġlif ting
ĠT ree
izz ie
ĠTh ose
Ġaccompl ish
Ġd aisies
Ġtriang les
ep t
Ġhesit ated
Ġann oy
Ġgrowl s
ĠTw inkle
Ġcrack ers
ĠB ark
Ġstom ped
Ġc ott
Ġgra bbing
Ġbo dies
Ġfig ured
Ġm ater
Ġbuy ing
Ġmater ial
o ke
ĠP am
Ġswan s
Ġt ies
Ġg ri
ver s
Ġgrow s
ĠBl oom
ĠGood bye
Ġsweet s
Ġown ers
Ġcheek s
Ġflav or
ĠL izzie
Ġsuffer ing
v room
Ġfa ct
Ġgroup s
b ly
Ġfore head
Ġlung s
Ġre pa
ĠTr ust
Ġinterest ed
Ġbak ery
ĠR ain
Ġf reed
it ches
ĠB all
Ġchuck led
Ġsw ept
Ġcon n
? '
Ġthu d
Ġexha usted
Ġt apped
Ġtwink ling
Ġne ct
Ġnect ar
Ġ Q
ell e
Ġfe ast
ĠChr ist
Ġdar ling
ĠT ry
ind r
Ġwor ries
Ġun s
Ġtunnel s
Ġfu zzy
Ġre ason
ĠPe anut
Ġrepa ired
ĠJ une
ĠU p
Ġactiv ities
ĠL isten
Ġpec ked
Ġent rance
Ġme als
Ġra indr
ĠEl s
Ġcomplet ely
Ġpartic ular
Ġma iled
ĠFr ost
ct ions
Ġnest s
Ġwait er
Ġcudd ly
Ġs ense
Ġcolor ed
Ġle ap
b and
Ġpl enty
st ep
Ġpee king
n o
Ġslam med
ĠB irthday
Ġplay ers
Ġbu dge
Ġmon th
Ġsc ra
Ġforget s
Ġd en
ĠFrost y
Ġhand ful
ĠRob ert
Ġm er
ĠRo llie
Ġgen ie
Ġst ool
igg ie
Ġtalk s
o ssible
Ġfeed ing
Ġpassport s
Ġfilm s
Ġbath s
Ġimp ossible
ĠSt ella
ĠN ick
Ġdeterm ination
ĠâĢ ĺ
Ġprin ting
bo at
Ġdesign ed
ĠO ther
Ġbu ses
Ġo pp
le phant
ue en
Ġbar s
Ġsuit case
Ġn ibb
Ġcount s
Ġsto len
Ġspread ing
Ġspike s
L ila
Ġste er
Ġwip ing
Ġl amb
Ġhon ked
n ies
Ġcow b
k y
Ġsepar ated
bl ings
Ġsi blings
Ġhop s
W hee
ĠL au
Ġch op
Ġfire s
Ġsew ing
Ġfe ver
Ġtwink le
Ġt y
Ġcamp ing
Ġl ower
Ġch anging
y es
ret ch
Ġbeh avi
ĠMiss y
R ex
m as
Ġli qu
Ġcelebr ation
Ġdoll house
Ġsqueal ed
Ġback ward
Ġag e
ĠMay a
b ut
Ġsnat ched
ĠB iggie
ĠA bbie
Ġc ash
Bob o
Ġtw ice
ĠM ic
Ġs way
le e
it ched
u zz
Ġcelebr ating
Ġac he
Ġshr inking
Ġk ings
we ed
ĠH old
ri ous
Ġshop s
Ġkitten s
ĠRob bie
c ope
Ġh us
ck y
Ġtouc hes
ĠL ia
air y
Ġpan cakes
Ġavo id
Ġsp at
h og
r ig
ĠW oof
Ġpath s
h ile
ive s
Ġr otten
Ġcalm ed
Ġdro pping
Ġsea weed
ile s
Ġtwist ing
Ġstro ked
Ġunt ied
ll en
Ġplay house
Ġstud ents
Ġpupp ies
c l
h i
ĠI zzy
ĠR y
Ġscrew s
Ġast ron
Ġsome body
ĠChr is
ig ning
Ġliqu id
Ġsqu ish
Ġwake s
ĠLau ra
ĠRob o
Ġbracelet s
Ġastron aut
im mer
are n
Ġthr own
Ġloop s
Ġwra pping
Ġpl ain
Ġtr amp
Ġplan ning
Ġa imed
Ġsk unk
Ġpen nies
ĠFu zzy
Ġsh oo
Ġdanc ers
Ġlift s
Ġspark s
Ġfiref ly
p en
ĠChrist mas
Ġpo ster
Ġc ust
end y
Ġreward ed
Ġobject s
Ġdire ctions
ing o
us ing
Ġrefle ction
Ġhus band
âĢ Ķ
ri ver
ĠDo ctor
T ake
ĠR ich
ĠQ ueen
Ġcl ues
u ppy
ĠW oo
ĠSpark y
Ġlead s
Ġincre ased
Ġbl ocked
Ġr ising
Ġdo d
Ġcous in
ĠE lephant
Ġforget ting
rig ued
Ġcust om
ĠRu dy
Ġbegin ning
Ġtramp oline
Ġstore keeper
Ġpout ed
arth a
Ġzebra s
Ġa ff
Ġhedge hog
ĠRy an
ĠA ng
Ġborrow ed
ĠK aren
Ġsnow fl
Ġcountry side
u de
Ġmes mer
Ġvehic les
ĠOn ly
Ġinstr um
ĠM oon
Ġfrown ing
S ome
iv ity
B uddy
Ġmark er
y ond
Ġbe yond
ĠF ire
Ġpres ses
Ġfar t
Ġdam age
i very
am my
ĠAl ong
ie ce
ĠF arm
j o
Be ep
Ġheal th
Ġwhisp ers
Ġslip s
Ġswims uit
Ġfl apping
Ġwarm er
ĠEm my
ĠM artha
Ġtipto ed
Ġregret ted
ĠS im
itt ed
Ġlay ing
Ġy elp
ad es
Ġevery body
Ġgl ued
Ġrain s
ĠSt retch
ĠM abel
Ġcre ations
Ġhear ing
Ġcold er
iver sity
a el
n k
Ġshap ed
Ġfin s
Ġstreet s
Ġcush ions
Ġrust y
ĠS w
Ġfart hest
Ġcreat ivity
ĠM a
Ġsa le
an s
ĠTo ot
i am
Ġstrong est
Ġfit s
ibb it
Ġbell s
Ġdoll ars
Ġe arn
ĠR on
ang le
Ġlend ing
ĠBe aky
ee se
Ġcash ier
Ġinclu ding
Ġsa nk
Ġsniff s
Ġrainco at
Ġsto pping
Ġtremb led
Al ways
Ġsour ce
it i
Ġind eed
Ġwob bly
ter s
ĠFarm er
Ġguest s
Ġsing le
Ġrecommend ed
ĠGr anny
Ġspell s
ĠT ia
Ġaccomplish ment
Ġbelt s
Ġsurpr ising
Ġend s
ĠAfter wards
ĠSnow man
Ġhope ful
ĠT ake
e al
Ġseas ons
Ġplan s
J ump
ich ael
Ġencou rag
Ġsupp orted
st ick
Ġsuff ered
Ġart ist
ill ed
Ġperform ance
e et
Ġslow ed
Ġg ross
Ġflav ors
id ing
Ġsp ins
ert ain
ch o
Ġlabel s
ĠSim on
Ġdel ivery
Ġraindr ops
u ing
ara c
Ġrac coon
Ġforgi ving
ob ody
Ġpour s
il ity
Ġstand s
Ġturt les
Ġvan illa
ĠB ones
ĠM ichael
u ess
Ġbe am
Ġrec ipe
Ġt ying
ĠSp irit
Ġg eese
Ġwill ing
Ġdraw n
Ġrob ber
Ġwe pt
Ġch arac
ĠK it
Ġcorn ers
Ġpop s
ĠH olly
el ia
Ġque ens
Ġd ie
Ġsail boat
ĠBark y
Ġgri p
Ġdriver s
it ude
Ġm oo
Ġimag ining
Ġhall way
Ġsecond s
V room
ĠA na
ĠJ ump
Ġprep aring
Ġwid ened
M ine
Ġc oop
Ġgro cer
ĠP atch
Ġtalent ed
ĠJan ie
Ġsail ors
umm ies
ĠT iti
T r
ll ing
Ġas ide
Ġsoft er
Ġwater ing
Ġknot s
Ġsend ing
Ġt ipped
Ġuns ure
Ġtree house
Ġhor iz
ĠP h
Ġnot es
Ġe cho
ig ers
Ġachie ved
ĠEx c
ĠCra b
Ġhoriz on
Ġsque ak
Ġdeliver ing
ĠP lay
Ġhot ter
Ġple asure
ĠZ ee
Ġpupil s
Ġbur row
Ġangel s
Ġcurious ly
Ġy um
Ġblin king
Ġd et
Ġtw eet
Ġsymbol s
w k
Ġpass en
Ġt ummies
Ġt iss
Ġpige ons
Ġfigure s
umb ling
Ġband ages
ĠT urt
Ġc oup
o ey
ĠS l
Ġrobot s
Ġtoss ed
Ġh our
Ġback wards
Ġro ars
al ph
Ġmer ma
Ġr ather
at ur
ĠT ess
ight ing
Ġgrocer ies
Ġzipp ing
ĠZ oey
Ġun w
ĠExc ited
Ġam ong
Ġ icing
Ġbl own
P ut
ĠThank s
Ġr umble
Ġafter wards
!âĢĿ .
ipp er
Ġscrew d
Ġg lee
Ġsp ed
Ġpr ove
us hing
Ġd ip
Ġover come
Ġsurf board
Qu ack
pr int
Ġshovel s
Ġslice s
ĠJack ie
Ġm erry
Ġm ate
ĠR alph
Ġwob ble
ĠW endy
Ġhead ing
Ġdisturb ing
ĠAb i
ĠW o
Ġsw all
Ġrever sed
Ġfirefight ers
Ġswall owed
Ġch ip
Ġsc ored
Ġfl ipped
ed s
Ġsquee zing
Ġwa king
Ġint rigued
ĠMar ie
Ġm aker
Ġp uff
aw n
Ġha wk
ust y
Ġencourag ing
Ġa ud
ĠL enny
V ery
on ies
ĠW illy
Ġch os
Ġchos en
ĠDave y
Ġcoup le
t he
Ġdesign s
ĠD es
Ġslipp ing
Ġscrewd river
Ġsquish y
L ike
Ġgarden er
Ġcent er
Ġriver s
Ġmark ers
Ġresp ond
Ġt igers
ile y
Ġjar s
pec ting
Ġfrown s
b ird
Ġflutter ed
Ġfirefight er
Ġsec ure
Ġsuit s
Ġsprink led
Ġcream y
Ġbr u
as hes
Ġshark s
Ġignor ing
Ġgigg les
ĠS leep
ĠTweet ie
R ibbit
Ġtight er
Ġtiss ue
Ġfirm ly
B l
ĠN obody
ĠJack y
Ġsh own
ĠR oo
Ġfamil iar
f ly
Ġthorn s
ĠTim e
Ġdraw ers
ch ild
Ġde f
Ġexp ress
ĠJu dy
Ġd aring
ment s
Ġcross ing
Ġaud ience
ĠS ince
Ġcloud y
Ġperform ing
Ġcolour ed
Ġc or
Ġa is
ĠTurt le
r at
Ġpedal ed
Ġmix ture
F r
Ġgrace fully
g gy
Ġ 2
Ġhaircut s
Ġyield ed
Ġp onies
Ġdis ob
Ġcrown s
Ġbit s
F in
G et
Ġto dd
Ġhang ers
Ġnervous ly
bb led
ĠChew y
ĠK ip
ĠTo dd
Ġpay s
Ġpe ck
Ġe v
Ġstro ke
f all
Ġn apped
Ġres pected
a ven
Ġmind ed
ĠW ise
ĠMom ma
dd ie
ab ly
ĠAl i
Ġtest ed
B oys
ad ing
p arent
ĠMad die
ar row
ĠUn iversity
Ġbee h
Ġneighb ours
Ġsurf ing
ĠB ally
F irst
ver ed
Ġsh ady
ĠY et
Ġd arl
ion a
Ġmagic ian
Ġenthusia sm
Ġdarl ings
Ġwis ely
Ġst itches
ĠJo jo
Ġsail s
ĠY og
Ġthought s
Ġweek end
Ġremind s
f ted
ĠM ina
Ġtemp er
or ing
il ted
ant ha
Ġfle as
Ġsurround ings
Ġspit s
Ġteam s
Ġfill s
Ġlesson s
e en
Ġfl ip
D ear
Ġpaint brush
Ġmel ons
ĠP uppy
Ġmerma id
B ang
ĠAl though
ĠOut side
ĠW in
Ġgrand child
Ġexpl o
Ġel bow
Ġhoop s
ĠS oft
ĠC u
Ġsport s
Ġli es
ĠF ighting
ra c
ĠF iona
Ġpan icked
Ġam ount
Ġclean er
c used
Ġlong est
ĠSam antha
Ġscoot ers
Ġl ent
ĠSad ie
Ġs ill
it a
Ġbel oved
immer ing
Ġbeeh ive
Al right
ll e
ong rat
on i
Ġoy sters
Ġgrand parent
ĠMix y
ongrat ul
G uess
ĠM other
Ġforgi ven
Ġmagaz ines
ĠSpark le
Ġar r
Ġe lf
ce s
Ġrepe ating
Ġdiscuss ed
ĠDan i
Ġsweet est
Ġwa dd
ĠEvery body
Ġre ass
K eep
Ġnightmare s
Ġtub es
Ġunderstand s
Ġspoon ful
Ġn ood
ĠP en
Ġbat hing
ast y
Ġman ners
Ġswe ep
c row
Ġb ully
Ġn ur
Ġwr ink
Ġspr ang
Ġgu ide
Ġc rew
ĠM int
ĠAm elia
om ise
on na
Ġbreat hed
ent ly
ild a
step s
w hile
ĠW ell
ĠK e
Ġbulb s
Ġc oug
Ġne are
Ġgrass y
Ġsp ies
Ġtest ing
Ġwigg ly
ĠE ddie
Ġsol ving
Ġsheet s
Ġfoot steps
ĠSt art
im my
nt il
Ġspeed ing
D oggy
he w
Ġfo cused
ce pt
oun ced
? !"
ĠHer b
Ġbra ver
Ġcam el
Ġmesmer ized
Ġhesit ant
Ġlick ing
Ġr ushing
ĠAng el
M oo
Ġjoin ing
Ġpol ar
Ġgreet ed
Ġwor n
Ġch anges
ĠU ntil
Ġmaterial s
und red
ĠDes pite
ĠB ess
Ġstor ed
Wh ich
Ġbicy cles
Ġm ast
ĠB ack
Ġan ger
Ġpeace fully
Le ave
Ġship s
ĠSh ow
T weet
Ġsp ice
Ġn uzz
Ġg onna
Ġterri fied
ĠC ow
Ġpol itely
Ġscare crow
Ġspill s
ĠMe an
Ġkn ives
ĠMe g
Ġev il
pp ies
Ġbury ing
B illy
c a
O n
Ġare n
Ġheal ing
Ġdon key
Ġaeropl anes
f reeze
Ġm iles
Ġse als
ag ic
Ġscatter ing
Ġd ump
am boo
ĠN ice
Ġworry ing
M imi
ĠG ary
z oom
be ep
- -
Ġpuzz led
Ġst acked
ĠR uth
Ġlo ses
dd ing
Ġbasket s
Ġtrave lled
ĠO kay
Ġbl ast
Ġgaz ing
ĠChe ss
er m
ĠF airy
ip es
Ġtemper ature
Ġu nd
Ġcl ue
Ġtast ing
Ġdri pping
Ġbelie ving
Ġ1 0
Ġpinch ing
Ġso aking
Ġrat s
H urry
is c
ĠPo or
Ġsand y
ĠIs n
re ct
ĠM indy
re y
ĠMean while
ĠH ug
ĠN avy
Ġban ged
Ġpunish ment
Ġhuman s
Ġcras hing
ĠS of
Ġh undred
Ġg est
ĠB ra
Ġswim mer
ĠT e
Ġsnowfl akes
Ġrelax ing
f orm
Ġres isted
ĠSt an
Ġbeep ed
Ġquarrel ed
Ġr amp
el ie
Ġjo ins
ĠSt ill
ab by
ĠD ina
Ġbackpack s
ĠEl iz
Ġdress ing
Ġdelay ed
year s
ĠC r
Ġtodd ler
Ġfl ight
Ġcover ing
ĠAn other
or ter
Ġben ches
Qu ick
Ġencourage ment
Ġtow ard
ĠMad dy
Ġscra ped
O pen
Ġfo cus
Ġpurp ose
Ġcor rect
' ."
Ġlip stick
Ġb amboo
id er
Ġpot ion
Ġperm itted
Ġtwink led
Ġmonth s
Ġlangu ages
Ġord ers
Ġfreed om
Ġm aster
Ġpo ppies
ĠJu dge
Ġrisk s
ĠM aisy
sh m
Ġnood les
Ġf aded
ĠBl inky
Ġwound s
A ll
ri er
ĠL oop
shm allow
is ions
Ġbird house
Ġcream s
Ġcell s
Ġannoy ed
op es
Ġche ers
Ġsniff ing
Ġadult s
Ġunw ra
Ġp uck
ec ca
Ġflo ats
Ġopin ions
ĠJon ny
ĠSof ia
Ġ 5
and as
ĠR ia
ĠShe lly
Ġfl own
ĠE va
Ġsc en
Ġhands ome
Ġsnee zes
K ids
Ġno dding
Ġsmell ing
Ġbur nt
ĠR azor
Ġdri fted
b age
Ġwith in
Ġhe ight
Ġsc ient
Ġbother ing
Ġdam aged
Ġsl ither
Ġte aring
Ġple aded
Ġinstrum ents
Ġe ase
ĠYog a
Ġscient ist
Ġp ound
ĠS ay
Ġhand ing
Ġsell er
Ġg erm
Ġwas ting
ĠFl ick
Ġfile s
Ġdream t
Good night
Ġresult s
ĠZ ippy
b ell
Ġexplain s
Ġdestro ying
Ġbrus hing
Ġhis s
ous y
Ġcharac ters
Ġc ertain
Ġsweat y
un ched
ĠMe gan
Ġbus iness
ĠPr ince
I n
ĠH oney
Ġon ward
ĠF e
Ġtal ents
Ġbrave st
Ġeng ines
it ion
Ġstern ly
Ġsw irl
Ġpost man
Ġmosquito es
print s
Ġmind s
c ake
u nder
Ġt uck
Ġscare s
ĠR icky
Ġstom p
Ġapolog ised
Ġman ag
Ġb itten
ĠS e
Ġsn uck
ĠG erry
S n
u el
Ġt ilted
Ġsw itched
Ġdec isions
Ġremind ing
atter ed
ĠFrank ie
Ġsing ers
Ġdes per
ĠSh adow
Ġbehavi or
as hing
bb ers
Ġsque aked
Ġpeel ed
T ry
ĠC ari
in ny
Ġy umm
Ġpur rs
ĠM ousy
Ġsm ashed
ĠR uff
Ġtreat ed
Ġdisplay ed
Ġrust ling
Ġneat ly
Ġmate y
Ġplant ing
A n
Ġmar shmallow
ĠKat y
Ġin sp
B ig
Ġs y
Ġcra cks
Ġbell ies
Ġyelp ed
Ġgrandparent s
a ver
Ġsc amp
ĠN ut
Ġshin es
Ġh oo
Ġfa iled
Ġcolor ing
ĠFish y
ĠM ake
ĠL uc
l ine
Ġzoom s
r up
Ġn asty
Ġbreat hing
Ġcomb ed
Ġp andas
Ġdes pite
ĠCu rious
Ġadd ress
ĠT ri
ig hing
Ġwater fall
ĠC ro
uff in
T w
c c
Ġro bbers
Ġant ic
ĠNan cy
Ġwid er
ĠLou ise
ĠI m
Ġdoor way
ĠPat ty
Ġsweat ers
Ġecho ed
Ġed ges
om p
Ġin j
Ġfor ce
Ġg ap
Ġdisob ey
w ise
Ġt ar
ĠR ita
D aisy
or king
os cope
Ġmagn if
Ġtap ed
f ather
Ġact ion
Ġscold s
Ġflap s
Ġcrawl s
Ġgo bbled
Ġback s
Ġsw ap
Ġwar ri
ĠV iv
Ġst eth
Ġse ver
ĠG l
Ġcur l
Ġshin ier
Ġprob ably
Ġnewsp apers
ĠB ang
Ġo cc
ĠK elly
Ġsever al
Ġenc ount
W ake
Ġpl ucked
Ġquiet er
Ġser ving
ĠSh are
Ġconn ected
t ock
Ġ ouch
ĠN urse
ig ger
ĠFl o
ĠJ ax
Ġgest ure
Ġpl ot
Ġdoor bell
Ġstud ent
Ġcare s
Ġsqu aw
ĠBubb a
f ire
ĠJo h
Ġresc uing
Ġgrand son
Ġg oo
Ġsp y
Ġrow s
Ġsimp ly
Ġwhist les
m ies
ĠB ri
P lay
v ant
Ġsh orter
ĠP l
Ġsnap s
Ġastronaut s
B unny
ss ss
Ġunpack ing
Ġcott age
T oo
Ġsw o
Ġaccident s
F or
Ġm ood
Sh rink
ib i
Ġswo llen
ver se
ĠKe vin
Z oom
ab elle
Ġbother ed
ĠM uffin
ain t
Ġsteth oscope
ĠA r
ĠE lle
Ġca using
Ġtrust ing
ĠWoo ly
ĠPh il
ĠB ad
Ġdress er
Ġleap t
Ġs ou
f ound
Ġpill s
Ġprop er
ret ty
ear s
Ġthrough out
M agic
Ġrun ner
Ġpray ers
ĠN e
Ġjoy ful
w hat
ĠRe ady
ĠV room
m ates
Ġlo cks
ĠW ait
ul p
Ġgoat s
Ġtar get
re st
Ġde ars
ĠT oys
Ġm unch
Ġfl ips
Ġwadd led
Ġlow ered
ĠP op
Ġste pping
ĠStart led
ĠT aking
ĠFl op
Ġcon s
ĠSpe ed
Ġteacher s
Ġcowb oy
ĠDani el
Ġin ches
Ġenvel opes
Ġch ar
ĠEls a
ĠT y
Ġexplore r
Ġantic ip
Ġplay d
un ity
en ing
ĠF el
Ġfloor s
Ġknock ing
Ġeffort s
Ġuniform s
l ied
Ġaw are
Ġfoot prints
N ice
ĠB umpy
Ġnear ly
ll as
ĠB ibi
Ġdis c
Ġs ens
Ġwh imp
Ġtr ot
Ġgl itt
Ġappreci ation
ĠBe cky
Ġne cks
Ġche cks
Ġcoll ap
Ġla pt
Ġex cept
Ġpl ug
ĠM in
Ġch arge
ri e
oo sh
ĠR og
Ġflutter ing
Ġumbre llas
Ġstamp ed
ĠSee ing
Ġsandcast les
Ġstat ues
om b
ail s
Ġshr ank
isc uit
r ily
Ġfin ishing
Ġpri ck
Ġadd s
ĠBig gy
ĠO t
r ons
ĠJo an
Ġchocol ates
Ġhunt ers
Ġstro ll
Ġdod ged
Bl ue
Ġpassen gers
Ġgerm s
ĠViv i
Ġwr igg
Ġap rons
Ġais le
ĠC le
Ġset s
.' "
Ġwe eds
Ġnovel s
or der
Ġdemand ing
ĠZ ipper
Ġscratch ing
Ġmeow s
ĠD e
iss a
Ġnur ses
Ġmind ing
Ġdiscuss ing
Ġk illed
ur render
Ġdrive way
Ġbec omes
ac y
Ġha ird
ĠO h
ĠJ ason
Ġtool box
Ġlapt op
Ġpo sit
Ġatt ack
L una
S o
so l
Ġbounce s
Ġscamp ered
Ġde ed
Ġspray s
Ġsupp lied
ĠSoft y
Ġtem pt
Ġburn s
Ġfriendship s
Ġsuggest ion
E very
Ġsl apping
Ġclos ing
A rrr
Ġbelong ings
Ġinvit es
Ġanticip ation
ĠRog er
Ġfor m
ĠE ric
Ġspring ing
Ġer ase
Ġcott on
Ġr ays
Ġtwist s
ĠN ever
Ġforgive s
Ġsnugg le
Ġmodel s
ĠV icky
Ġsh all
ĠJo lly
ĠG us
Ġhum ming
Ġmass ages
ĠM an
Ġnew found
Ġcon c
Ġrespond ed
Ġex pecting
Ġghost s
Ġche ated
Do es
ot s
ĠY awn
ĠFl utter
ott e
Ġtravel ing
Ġal though
Ġco nd
Ġbat tle
Ġmom mies
allow een
F riend
Ġa im
Ġcar ries
Ġinvit ations
ĠMa e
ĠA g
Ġrefres hing
ĠR el
Ġpresent ed
Ch irp
Ġr owed
Ġtw enty
ĠGra nd
Ġsqu ir
Some one
ĠB ingo
J ane
Ġfox es
Ġcoop er
Ġfin al
Ġduck ling
ĠEls ie
ĠZ ack
Ġca fe
ĠG ray
ĠDot ty
Ġmarshmallow s
Ġcl icked
ĠFred die
Ġbe aver
Ġdes igning
Ġjet s
f ive
ĠH alloween
ĠWho ever
Ġmug s
Ġdr own
p o
on nie
Ġtri cycle
Ġcon vin
Ġpicnic s
Ġopp os
i ens
ĠT erry
in ted
ĠCharl otte
U n
Ġc ongratul
Ġscoop s
of f
Ġal iens
ĠâĢ Ķ
Ġtravel s
Ġtest s
Ġquestion ed
ĠL ina
ĠP iggy
Ġstrip s
an a
Ġde fe
co vered
ĠTr uck
he l
end ed
Ġfight s
ĠCh ick
ro ken
Ġoppos ite
H mm
Ġr out
Ġgrand father
Ġaff ord
Ġencount ered
Ġdec l
in ch
Wh iskers
ĠM ore
Ġra ising
im ent
Ġup side
Ġfl ashed
Ġcalm ly
Ġreal izes
Ġyaw ning
Ġsince re
ĠPlay ing
F ind
Ġb uddy
ĠWill iam
Ġcryst als
atur day
Ġcup cakes
Ġbuck led
ĠMiss ile
by es
ĠFl appy
Ġwin ners
Ġdef in
ĠS aturday
ĠTh under
ĠQuack y
' ,
Ġca w
Ġweap ons
Ġche at
sh adow
Ġpack ages
ĠAm anda
Ġsa cks
Ġgood byes
Ġco ach
Ġatt em
Ch oo
Ġmes ses
qu et
Ġcon vers
ĠNut ty
v al
ĠJ et
Ġcap s
ĠC ook
Ġen em
Ġenem ies
E m
ash a
Ġscr ub
ĠTweet y
Ġyumm iest
B all
Ġsw allow
Ġreturn ing
Ġadmir ation
r omise
Ġspr out
Ġun able
Ġb less
Ġsad der
Ġbright est
ugg ing
Ġfreez ing
Ġresp on
re verse
Ġco sy
Tr ust
Ġrespon se
M olly
H is
ir i
Ġbr ide
Ġdiamond s
st alk
Ġre app
ook s
Ġgar bage
Ġhon king
Ġopp ort
Ġstret ches
Ġprevent ed
Ġwhisper ing
er k
Ġo dd
Ġwho ever
ant astic
Ġaw ful
al th
Ġjourney s
Ġweigh s
Ġaw oke
ĠJe an
B rrr
Ġdragon fly
Ġtrap s
ĠSh ark
ĠOl iv
Ġspice s
Ġb orn
at ty
ĠFl oppy
Ġcl ip
Ġreass ured
Ġst all
Ġbean stalk
Ġarg um
Ġexam ining
Ġbeet les
Ġautomobile s
Ġdefin itely
m ine
ĠT ammy
ĠB ub
ic i
Ġvisit ors
Ġstuff ing
Ġplayd ate
Ġwas hes
ĠA ny
b roken
c ie
Ġwis er
Ġcustom er
ĠWo lf
ĠT re
em ma
up er
Ġtrave lling
Ġb ou
ĠHe llo
Ġhaird ress
Ġbou quet
, '
Ġt umbled
or se
ĠP ick
ĠJane y
Ġdecor ation
Ġcamp fire
ĠAm ber
Ġbu d
Ġhonest y
a ction
v y
Ġb omb
ĠJ umpy
Ġwelc oming
Ġoffer ing
ĠMag ic
Ġwe alth
Ġtrou bles
Ġincre asing
Ġocc as
Ġloud est
Ġinsp ired
Ġpar ted
Ġgro an
Ġty pe
ĠAsh ley
Ġwh ales
b ecca
ĠM oppy
ĠRe becca
ĠH ar
ĠEliz a
Ġdecl ared
On ly
Ġcorrect ly
f us
ĠF ly
Ġcra ft
Ġbeak s
Ġcle ared
ath an
ĠS al
Ġcowb oys
S oon
ĠG abby
Ġnuzz led
ĠS asha
Ġex ch
Ġwarm ly
Ġpri zes
ĠBri an
ĠD ay
ĠC ici
Ġre wards
Ġobey ed
Ġcustom ers
y l
ĠS il
Ġcomfort ing
Ġsiren s
d a
ook y
sh aped
Sh ould
Ġconn ect
m atch
Ġtown s
ĠR ub
ĠOliv ia
Ġre ly
io let
elie ve
Ġf antastic
Ġtr igger
Ġown s
Ġbend s
Ġinsist ing
Ġspo iling
Ġhairdress er
Ġp ipes
Ġpo ses
Ġshare s
Ġclean s
Ġsupport ing
Ġsurrender ed
ĠT ippy
ĠB ert
ren ch
Ġwrink led
Ġcho pped
ĠTy ler
Ġmo ons
Ġrec order
Ġbeam ing
C ar
ĠL ight
un es
ell ow
Ġthan king
Ġsnow y
ĠGra cie
Ġsc urry
ĠP ine
Ġenjoy able
Ġact ive
ĠSt ep
Ġexper ien
Ġc oral
ĠB aa
Ġdoll ar
Ġenv iron
w orm
el ope
Ġlo c
Ġstream ers
bb le
ud ged
ĠS weet
ing er
Ġex amp
ĠTw ist
Ġshort s
Ġshoo ed
Ġenviron ment
Ġ ill
Ġsc ent
Ġbru ises
o or
ust er
Ġgr at
ĠHo pper
Ġhis ses
ĠJo ke
Ġpl ugged
ac le
Ġsel f
Ġsteer ing
ĠP retty
Ġwarri or
Ġvisit s
Ġexerc ises
ĠMon key
o ver
ap tain
Ġdan gers
Ġcudd les
Ġs igning
Ġun fortunately
Ġsqu ished
sc reen
Ġdisappoin t
be e
Ġpilot s
m unk
ĠN ora
Ġapplaud ing
Ġgrat itude
al f
ĠW il
Ġprov iding
Ġt ing
Ġtick les
Ġbad ger
Ġnight s
Ġju d
Ġstorm s
Ġconvin ced
Ġyou n
Ġrespons ib
Ġchoo sing
Ġbra ins
Ġactiv ity
Ġneare st
Ġyoun gest
Ġexplo ded
Ġarr anged
Ġcoug hed
B ella
ĠO ff
Ġreward ing
ĠAunt ie
g ood
Ġbo nd
Ġsun screen
Ġpe ep
erp iece
ĠRu fus
T ree
as ers
O llie
ĠF ort
il ities
Ġannoy ing
G row
s n
ĠFl ora
Ġsoap y
ĠB erry
me ow
ĠTess a
Ġla ces
Ġrail s
Ġt apping
Ġoff ic
Ġthread s
Ġappreci ated
ĠHel en
Ġwe ighing
ĠC ally
bo ards
Ġheart broken
Ġemer ged
Ġcongratul ated
ĠMic roscope
B ear
D anger
Ġt in
ĠTom orrow
Ġcl erk
ĠG illy
Ġcrocodile s
Ġscr am
Ġattem pt
w ater
Ġd ial
Ġsn ug
Ġmess ed
Ah oy
Ġexamp le
ĠJen n
Ġhook s
Ġtop s
Ġchip munk
Ġso ot
Ġbat hed
Ġguard ing
Sara h
ĠPen elope
Ġmanag er
P e
ĠFort unately
et ah
Ġmast erpiece
end ing
ĠM art
Ġer asers
Ġf et
Ġfin ishes
Ġtip s
Ġcomm on
ĠFel ix
Ġme mb
Ġdig s
Ġnibb led
Ġtrot ted
Ġmemb ers
ĠS et
ĠF ay
Ġkind er
Ġche etah
Ġexp ert
Ġbl ond
Ġchew s
ĠPe ggy
Ġparticular ly
ir cle
Ġbe ast
Ġrip s
ĠR iri
Ġargum ent
at ive
Ġfa ith
ĠHelp ing
A b
ĠS uper
ĠAnd rew
Ġearn ed
Ġobser ving
Ġforgiven ess
Ġche aper
Ġmis chie
Ġfis hes
Ġinst antly
Ġexperien ced
Ġc ages
Ġgener osity
Ġmischie vous
Ġfo am
Ġmeow ing
M ark
m ered
ĠB arry
ĠB uster
Ġstore s
Ġgrand d
ĠExcited ly
Friend s
Ġmatter ed
etch up
Ġl imp
Ġp asses
ĠI ce
ĠC aptain
Ġte les
Ġsleep s
ĠF le
ĠP uffy
Ġbreath s
Ġr in
ord inary
Ġgasp s
ĠG ill
G ot
Ġr umbling
Ġtr ans
Ġhat ch
ĠZ og
ĠMat ilda
ab ra
Ġgrass ho
Ġsatis f
Ġaccompl ished
Ġth ump
Ġstr um
ac ing
Ġmat s
Ġsmart est
Ġteles cope
Ġwh ined
ĠBob bie
Ġmo at
Ġj ugg
Ġfarm ers
Ġscram bled
ĠM ila
Ġdri p
Ġgarden s
Ġang rily
Ġsy rup
Ġcollap sed
ou raged
ide y
Ġforest s
Ġve gg
Ġdiscover ies
Ġsty les
Ġexperience s
Ġto r
ĠT iger
Ġf aint
er ing
Ġmed als
ĠCl oud
ho le
Chirp y
Ġmean ing
ĠDo es
Ġcon qu
Ġcour t
Ġotter s
Ġty pes
p it
Ġf if
ĠL y
ad abra
ĠW aff
Ġsn apping
Ġhard est
ac ock
Ġmove ments
Ġexpress ion
Ġch illy
ĠP ig
ac les
Ġbubb ly
Ġsur v
Ġaff ect
ĠOt to
Ġvest s
Ġunf air
Ġtooth brush
Ġextra ordinary
Ġscore s
Ġm ir
ĠA pp
ĠBut ter
Ġatt itude
ĠPe ep
T eddy
Ġblue bird
Ġhor ri
Ġvi br
O nce
ĠP inch
ĠRain bow
m el
ll s
Ġk etchup
ĠR ight
Ġspear s
Ġsoon er
Ġbehavi our
Ġgrassho pper
Ġha bit
Ġpat ches
Ġmom ma
Ġaf ar
Re my
Ġpoke s
ĠL ife
ĠGo ld
Ġth ie
Ġsc ri
Ġthick er
Ġ icky
Ġshr unk
Ġclass mates
Ġsquee zes
Ġslither ed
ĠRos a
Ġglitter ing
Ġprick ly
J oe
ĠB onnie
Ġto pp
Ġkneel ing
Ġann ounced
ell ing
Ġpe acock
pl ash
Ġmark ing
ĠS and
l t
ĠS ir
ĠA choo
ct ric
Ġcost s
ĠMel issa
ĠA c
Ġwater mel
Ġzigzag s
ĠMix ie
Ġthie ves
Ġh ood
ĠL ung
Ġjump er
Ġact s
Ġskirt s
ĠSil ver
ĠSp idey
Ġwo lves
Ġco coon
ĠAnn abelle
Ġdri ft
Ġsque aky
Ġthumb s
ĠAn imal
J immy
Ġbo ards
ĠJ elly
ĠE d
Ġwood cut
oun ce
Ġser vant
B aa
id ence
Ġche ating
ĠR iley
b u
c at
l o
Ġr aking
Ġtr ading
ĠM ine
ĠM ath
Ġexplain ing
Le o
Ġb iscuit
Ġtid ied
Ġluck ily
Ġlunch time
an ced
id y
ĠIn ky
Ġspill ing
H oney
ĠU se
ĠPaul a
ĠMon ster
Ġcon cer
Ġdessert s
Ġtrans form
r or
ĠL i
âĢ ¦
ĠK y
r ough
it s
Ġmess ages
Ġbe ating
Ġch ill
Ġwindows ill
M ouse
ĠB oom
Ġsee king
Ġa ctor
am ma
se ss
ĠH i
Ġfore shadow
pr il
N ever
w ar
Ġlean s
ĠCarl a
Ġhis sing
Ġfl ashing
ĠJo se
Ġde v
Ġcloth s
rac adabra
Ġwatermel on
Ġfun n
Ġte ap
Ġwind ing
Ġdisc ouraged
Ġposit ive
p op
Ġdri pped
Ġcompet e
Ġfort s
ĠY ummy
ĠFe el
Ġwoodcut ter
Ġpress ing
Ġdisagree ing
F ire
F reeze
Ġgl immering
ĠTo oth
Ġtidy ing
Ġtrust s
Ġkangaroo s
Ġvegg ies
Ġland ing
Ġtemp ted
ĠBo at
Ġdo ck
ick ing
ĠPe ace
l ers
Ġfor med
Ġsh allow
Ġover w
ĠCh ip
ĠSte ven
ĠSl inky
Ġteap ot
Ġ 4
Ġf ade
Ġr ack
ĠR atty
f lowers
Ġwor st
Ġele ctric
Ġcop s
Ġapolog y
cream s
ĠSque ak
Gra ndpa
Ġsled s
Ġas s
up id
Ġcomet s
Ġsa v
ĠC ircle
Ġp apa
ĠH urry
Ġsitu ations
Ġconvers ation
Ġoffic ers
ĠWaff le
ĠT ip
Ġsle e
ĠWoo lly
S un
Ġd ing
st orm
Ġsun s
âĢĿ ,
Ġpizz as
Ġzip s
Ġmill er
Ġstructure s
Ġscurry ing
Ġoverw hel
Ġf oggy
ĠSn ake
Ġgrandd aughter
ĠA pril
ĠBird s
Ġweb s
Ġdeser ved
ĠT ra
Ġcub s
Ġopport unity
ĠFay e
i ving
Ġsn orted
ĠR avi
Ġrhin o
ĠY ellow
Ġdifference s
ĠT ell
Ġquack ing
ĠIm mediately
o ot
Ġhe aven
if ully
Ġin ter
Ġle vers
Ġunl o
Ġinch worm
J ill
ĠSm oke
Ġappro ach
s sess
Ġpo ssess
ĠMo le
ĠMon a
Ġseagull s
Ġcooper ate
s ers
ĠE ver
?âĢĿ .
wel come
rag on
ĠFlop sy
ĠO ver
Ġpo se
Ġdisappoint ment
Ġd ep
ĠC ars
Ġspeak s
Ġbin oc
Ġsneak s
s ie
Ġart work
sn ap
Ġsc owl
Ġanswer ing
Ġsurf ed
ĠLiz a
R ock
Ġshort cut
ĠV iolet
Ġs ipped
ĠC andy
Ġrob in
ri ck
ss y
Ġar rest
ĠM us
Ġre un
Ġam used
Ġribb it
Ġunwra pped
ug ar
Ġpepper oni
Ġrepe ats
Ġappl ause
Ġkey hole
Ġcheck out
D eal
Ġvisit or
Ġstri king
Ġpadd ling
Ġpuppet s
E at
Ġun z
Ġatt acked
Ġcro aked
ĠBee f
Ġsp ooky
ors ie
u ses
ĠC on
Ġbeaut ifully
Ġgroan ed
g ar
cident s
Ġcheck ing
Ġswimsuit s
Ġcons ider
ĠMar ch
j est
Ġg room
Ġwater s
L isa
Ġin vent
ĠL iam
ĠJo dy
ot ion
Ġnet s
Ġexam s
ĠF ind
ĠR ing
Ġdry ing
Ġl ump
ag ine
ĠC ammy
ĠJan et
Ġshrug s
Cl imb
le st
Ġso bbing
Ġshy ly
Ġcheer fully
Ġshoot s
Ġheel s
Ġhonk s
ĠBub u
il i
es ses
Ġsh h
Ġch in
ĠD oug
Em ma
an ish
ĠH orsie
ĠG low
Ġhang s
Ġhealth ier
Ġwhimp ered
ic ious
Ġcaterpill ars
Ġf ries
Ġsqu inted
izz es
Ġmagnif ying
Ġbl amed
Ġfascin ating
Ġsc ulp
Ġtable t
Ġfrustr ation
Ġsculp ture
ou ched
Ġsh immering
ĠTh rough
ĠHel i
ĠMart in
Ġpo ss
Ġs uck
ed ic
ĠO ld
Ġnumber ed
Ġple as
ĠJoh ny
ĠO xy
ĠB a
ĠP ast
Ġnibb le
ĠA lf
ell ie
oth y
Ġflow ing
Ġba a
hing s
Ġgr umbled
Ġra ked
o ll
Ġbuild er
e my
t hat
Ġfa cing
Ġgu ards
Ġpet ting
ĠLook ing
Ġsway ing
rac ted
ĠFeel ing
ĠM atch
Ġmyster ies
Ġsprink le
Ġdet ails
Ġfl ock
Ġsn ort
Ġen emy
e at
am il
ĠB un
Ġgood ies
ĠWh ite
Ġtexture s
Ġw ig
Ġpo pping
ul ars
ĠJohn son
Ġcr ops
Ġmar ve
Ġcount ries
Ġfan s
Ġwild flowers
Ġstack s
h ow
Ġknob s
ĠQuick ly
A ny
Ġbus hy
Ġloc al
Ġste w
Ġbow ing
Ġang rier
Ġhunt ing
Sh aring
Ġdrown ed
Ġpeep ed
Ġbinoc ulars
Ġmap s
Ġn iece
Ġqu izzes
Ġmoon light
ĠD eal
Ġoutfit s
ĠSleep y
ĠTri angle
O O
Ġw rench
ĠI cy
Ġwh oosh
Ġweak er
Ġmind ful
Ġcrow ded
Ġend ings
ĠK n
cy cles
ĠCo al
Ġfl ashes
ĠC ut
ĠC are
Ġhesit ation
ĠWo nder
Ġproper ty
Ġbo il
ĠF ix
ĠSp icy
Ġab ility
Ġun less
Ġfo nd
Ġcart s
Ġimagination s
amil iar
ĠO xygen
get ic
Ġgl ared
ĠAc cidents
ĠT oo
Ġha ven
st and
Ġkn it
Ġfold s
Ġmic row
Ġspace s
Ġunf amiliar
s aw
th s
Ġdirt ier
Ġresponsib ility
b ank
Ġp ouch
Mom o
ĠLe ah
Ġdesk s
Ġmicrow ave
ĠS urpr
se y
ĠTr ucky
Ġcrack er
ib ly
Ġd ate
ĠJ as
Ġsw apped
rn ie
Ġmem ber
Ġast on
et s
ĠP er
f ree
Ġwh ine
Ġre bu
Ġdoor step
Ġsoft ened
Ġdisappear ing
Ġn atur
Ġquack s
ĠB ro
Ġlisten er
sc ar
Ġwrit er
ĠCar ly
Ġbl ushed
Ġpri v
B less
u ke
Ġnot icing
ven ir
ĠR es
Ġpalm s
u pt
re pe
ĠCra bby
Ġsou venir
po ison
a i
end ant
ent r
ĠP ot
Ġdis aster
Ġlaw s
ĠAnimal s
repe at
W ant
re g
st r
ĠB elle
Ġph ones
al a
Ġconf idence
ing ly
Ġstir s
Ġtim id
Ġoverwhel med
Ġfl ick
Ġmay or
Ġt ugging
ĠR un
Ġ' '
gu ess
Ġunt angle
ĠFl ap
Ġowl s
Ġmail ing
Tw o
Ġinj ured
s a
ĠB ooks
Wh ose
Ġconc entr
Ġsatisf action
ĠSand ra
ĠM amma
ch ing
ĠCl ose
ĠCle an
m ers
Ġl im
ĠE at
Ġpr ank
ĠJo anna
th is
ĠH ank
ĠC oby
ĠJen nie
Ġhoo ves
w ell
Ġfix er
ĠFlick er
ic ate
Ġcl ut
Ġsn ar
ĠK en
ĠRel iable
b ling
ĠS ing
Ġsk ies
Ġinstrum ent
ĠF a
Ġcap t
R ain
l ish
ad ually
Ġdes c
Ġdisag re
Ġpe cks
ĠP ink
Ġcre ak
ik y
Ġstain s
ĠStan ley
Ġwrigg led
Ġrin se
ĠJas mine
ĠKy le
ĠO scar
Ġsh ave
ĠN ate
Ġbump ing
Not hing
ĠSc issors
ĠO f
Ġr uff
ul f
Ġbend ing
ĠGreen y
Ġsw ir
ĠC her
Ġsand pit
cess ary
Ġexplor ation
Ow l
Ġchat ted
Ġle ver
ĠBr ad
Ġrod s
Ġfact s
Ġattach ing
Ġfool ed
ĠCl imb
Ġbur ger
Ġglow s
Ġclear ly
Cl ose
ĠSet tle
Ġconcer ned
M ake
R ob
Ġla va
Ġcomp an
Ġsal on
Ġrever sing
Ġcertain ly
ĠL ots
Ġsm elt
el s
ĠBl ack
Ġcir c
Ġmotor cycles
Ġfet ched
Ġt unes
Ġsomet ime
Ġtr oll
Ġold est
Ġpro d
Ġfiref lies
ĠS ummer
ĠM s
Ġkiss ing
Ġchallen ges
Ġblond e
Ġwarm ed
Ġb ound
Ġru bb
Ġdifferent ly
Ġunlock ing
ĠLight ning
Ġnatur al
er g
ĠO pen
urp le
Ġcut ter
Ġcup cake
Ġriver bank
Ġdet ect
Ab racadabra
Ġconqu ered
Ġall ey
ĠR aven
Ġhat es
s orry
ul a
Ġreal ise
Ġsend s
Ġswirl s
Ġm unched
ra p
ĠUn i
Ġwigg ling
Ġbang ing
Ġsens ation
ĠAg ain
Ġf ist
Ġcl ips
ĠAl an
Ġhipp os
Is n
Ġtopp ings
Ġha lves
Ġst ings
Ġro be
ĠW inky
Ġbr akes
ĠPat rick
Ġsway ed
Ġmir acle
ĠS ugar
ĠW orking
Ġostri ches
Play ing
Ġsurv ive
S plash
Ġother wise
ber t
Ġcr ushed
Ġbubb ling
Ġemb ra
keep ers
Ġtor to
ĠA very
Ġtent s
ĠGr ump
ĠLuc as
ĠCar rie
ĠIn ch
Ġrepair ing
ĠWh ich
Ġliz ards
Ġstretch y
Ġvine gar
Ġrubb ish
ĠR usty
Be ing
Ġpassen ger
Ġp ounced
ast e
ĠJo sie
ĠG inger
ĠRob in
Sn ow
Ġvibr ant
Ġtorto ise
T iny
ĠD uke
Ġscen e
g r
Ġb as
Ġgl ided
ĠOr ange
ĠSunday s
Ġmoo ed
Ġdesper ately
Ġp oop
ĠH or
Ġint ently
Ġsn ip
Ġcalm er
Ġcop ied
Ġma jest
n et
oo h
Ġj ing
Ġtw el
Ġwo ken
Ġjoy fully
Ġcoo lest
Ġrag s
Ġjud ges
ĠT ears
ĠT hings
ĠE rnie
Ġgl ob
ĠBr uce
Ġlecture s
sm elling
Ġh ips
is ible
an ie
ly n
Ġqu ilt
Ġcous ins
Ġaston ished
ĠL aw
Ġcap es
un o
ĠW hee
Ġgu esses
Ġarri ves
Ġinv isible
Ġsuccess fully
Ġspeak er
Ew w
Ġgoo ey
Ġreun ited
F ly
w hy
an i
Ġbat s
Ġtwel ve
r um
ur ity
Ġgood ness
ĠP uff
Ġcomput ers
Ġchat ting
ĠSt arry
Ġstack ing
ĠSun shine
Ġsnowfl ake
ĠPinch y
Ġs us
Ġpark s
ist ory
Ġrac er
Ġcomm un
Ġpound s
Ġdesper ate
Ġreapp eared
Ġcompan ion
Ġd ou
Ġan k
Ġle vel
Ġluck iest
b ed
Ġt ale
Ġd umb
Ġg all
ĠD illy
Ġsell s
Ġcricket s
Ġstomach s
Ġg ates
Ġwind s
igg les
Ġdisobey ed
Ġdisagre ement
m ie
ĠI ron
ĠSp in
Ġho ses
ĠC omet
ĠR eddy
Ġcr isp
ĠMar ley
Ġaw hile
Ġpearl s
l or
it es
Ġso da
ĠSo cky
Ġloyal ty
Ġpops ic
ĠWin ter
ĠG emma
Ġtong ues
o ard
us ion
ĠC D
ĠBe a
Ġrid er
ĠSw immy
O oh
t s
ĠJ ere
d es
p an
Ġsure ly
ĠSm o
re nt
Ġbu nd
col ored
ĠRo ar
ĠJon athan
Ġoccas ion
! âĢĻ
d og
Ġst un
Ġchick s
izz a
Ġguit ars
ĠSh arp
ĠCar ol
R ing
ch ief
Ġab oard
ĠP ark
Ġintellig ence
Ġalligator s
Ġsepar ating
Ġseas he
Ġrebu ild
F ound
ra w
ĠR ace
Ġcre ep
Ġcro ak
o ss
Ġc uc
Ġlearn er
aid s
ĠV ery
Ġcaut ion
ĠLi bby
Ġr ins
Ġwh ines
Ġsp iky
ĠWh ale
Ġreveal ing
sol ut
w orking
ĠR ara
Ġtick ling
ĠPe bby
Ġesc ap
E lla
ĠH ur
Ġla ce
Ġunder water
Ġcr ouched
Ġglob e
om a
Ġpr og
Ġbloom s
Ġappear ance
!' .
f ived
st op
Ġle aking
if er
Ġhat ched
Ben ny
Ġguard ian
Ġstroke s
C atch
m o
Ġt ant
Ġdo ves
arn ing
Ġzoo keepers
Ġpersist ence
Ġrout ine
Ġbl ame
Ġsqu ashes
Ġpain ful
Ġlight ing
Ġadm it
Ġtap s
ĠAm i
ĠBree zy
Ġsh attered
ĠD ragon
Ġmo ld
Ġri pp
Ġdeep ly
ĠCr usty
Ġtempt ing
Ġthr one
Ġsec urity
gg les
Ġpeek s
Ġbur gers
Ġcent re
Ġsquir ted
Ġelectric ity
c on
em on
ĠG iant
Ġcook s
Ġreal izing
ĠAll ie
ĠV al
ĠSque e
Ġallow ing
ĠT urn
Ġl ar
ck er
ĠB ell
us hes
Ġcho pping
Bob by
Ah h
Ġexch ange
ĠC olin
Ġsweet ly
T oys
Ġsweet er
Sh are
Ġglitt ered
Ġrins ed
is app
ver ing
Ġgo ggles
ĠSp inny
Ġbuild ers
Ġmel ody
Ġmelt s
Ġfu rious
Ġener getic
Ġdefe ated
Ġwa ded
as y
ĠCat s
Ġsniff led
Ġchoo ses
ĠOther wise
ĠJenn ifer
Ġtant rum
ĠH ops
ĠP ee
ĠP atient
Ġcompet ing
Ġcontain er
H op
b ang
ĠR a
ĠGrace ful
Fr og
Ġh udd
Ġl ull
ar ted
Ġprotect ion
Ġserious ly
Ġund one
Ġattempt s
Ġlar ger
ĠB ar
Ġcl uck
ĠR andy
Ġbuck les
Ġhelicopter s
Ġcoo ed
Sh oo
Ġtoss ing
ap s
ĠJose ph
Ġd edic
ĠG ert
Ġhum med
Ġcourage ous
ĠDid i
solut ely
ĠL ast
Ġgo d
Ġal oud
Ġmu ster
ĠG irl
Ġpatient s
Ġrac ers
Ġdeser ves
ĠM op
F red
R ed
U se
ĠL ay
Ġmar vel
Ġmeet s
Ġtour s
ĠL and
ĠG ret
Ġwra pper
Ġbo oth
Ġwh iskers
Ġnice st
ĠK ind
Ġimpro ving
ĠCl are
ĠK enny
ĠN umber
ĠRo xy
ĠJere my
Ġbo ld
ĠG u
Ġimag inary
Ġmeadow s
ĠBra in
ĠT idy
Ġbl ades
ĠG reg
Ġob st
!' "
" !
C he
S urrender
w are
Ġop t
Ġcr uel
Ġpair s
Ġstro lled
Ġrisk y
ĠN elly
ĠThank fully
Ġpeel s
ssss ssss
Ġincred ibly
Ġwink s
O P
ic ally
ĠP ass
me al
Ġtank s
Ġneare r
Ġsquaw k
S ay
l os
Ġto t
ĠR ead
Ġmess ier
Ġar my
Ġlamp s
Ġpedal ing
Ġtransform ed
c an
k a
r is
Ġst ur
Ġfa il
te en
Ġinj u
k ind
s he
ill as
Ġre ct
Ġpe ak
sh rink
ĠSt and
Ġfu ss
Ġmunch ing
Ġhorri ble
A w
R ay
Ġn arrow
Ġtre as
ight y
Ġover head
gu ard
Ġholiday s
ĠSqu are
Ġunwra p
Ġbo iling
Ġbo lt
Ġdry er
ĠCh ar
Ġpan icking
Ġpuff ed
on ed
Ġho st
Ġdive s
Ġposs ib
ĠP anda
Ġoff ers
Ġsoft est
sh irt
Ġconf usion
cl oth
ĠCro codile
Ġall erg
Ġun covered
Ġmust n
Ġmarve led
ĠSo ar
ĠN ed
Ġcool ed
Ġ- -
Ġeld ers
ĠBr uno
uct ion
ĠDog s
Un cle
J enny
S weet
Ġh int
Ġd ips
ic iest
Ġsc re
Ġcur rent
ĠHur ricane
Ġmuster ed
I ce
S leep
ĠH a
Ġgl anced
Ġgrate fully
Ġcher ish
Ġchain s
Ġrot ted
ĠMatt hew
Ġcoug hing
Ġheight s
ĠHor sy
Ġank le
Ġtreas ured
id i
ĠF ather
par able
ĠCr ane
' ?"
Ġs inking
Ġsh aky
al y
ĠP urple
Ġcup boards
Ġenc los
Ġheav ily
Ġenclos ure
Ġm ac
Ġsp are
Ġinse parable
Ġsle igh
ĠCl ay
Ġgall op
ĠâĢ Ŀ
Ġoat meal
J en
Ġh ob
Ġl ush
Ġd ashed
ir ing
Ġr iddle
Ġne cessary
Ġse ction
Ġcan v
Ġun st
our ed
ĠFl uff
ipp ers
Ġclub s
