{"<|endoftext|>":0,"\u0000":1,"\u0001":2,"\u0002":3,"\u0003":4,"\u0004":5,"\u0005":6,"\u0006":7,"\u0007":8,"\b":9,"\t":10,"\n":11,"\u000b":12,"\f":13,"\r":14,"\u000e":15,"\u000f":16,"\u0010":17,"\u0011":18,"\u0012":19,"\u0013":20,"\u0014":21,"\u0015":22,"\u0016":23,"\u0017":24,"\u0018":25,"\u0019":26,"\u001a":27,"\u001b":28,"\u001c":29,"\u001d":30,"\u001e":31,"\u001f":32," ":33,"!":34,"\"":35,"#":36,"$":37,"%":38,"&":39,"'":40,"(":41,")":42,"*":43,"+":44,",":45,"-":46,".":47,"/":48,"0":49,"1":50,"2":51,"3":52,"4":53,"5":54,"6":55,"7":56,"8":57,"9":58,":":59,";":60,"<":61,"=":62,">":63,"?":64,"@":65,"A":66,"B":67,"C":68,"D":69,"E":70,"F":71,"G":72,"H":73,"I":74,"J":75,"K":76,"L":77,"M":78,"N":79,"O":80,"P":81,"Q":82,"R":83,"S":84,"T":85,"U":86,"V":87,"W":88,"X":89,"Y":90,"Z":91,"[":92,"\\":93,"]":94,"^":95,"_":96,"`":97,"a":98,"b":99,"c":100,"d":101,"e":102,"f":103,"g":104,"h":105,"i":106,"j":107,"k":108,"l":109,"m":110,"n":111,"o":112,"p":113,"q":114,"r":115,"s":116,"t":117,"u":118,"v":119,"w":120,"x":121,"y":122,"z":123,"{":124,"|":125,"}":126,"~":127,"":128,"":129,"":130,"":131,"":132,"":133,"":134,"":135,"":136,"":137,"":138,"":139,"":140,"":141,"":142,"":143,"":144,"":145,"":146,"":147,"":148,"":149,"":150,"":151,"":152,"":153,"":154,"":155,"":156,"":157,"":158,"":159,"":160," ":161,"¡":162,"¢":163,"£":164,"¤":165,"¥":166,"¦":167,"§":168,"¨":169,"©":170,"ª":171,"«":172,"¬":173,"­":174,"®":175,"¯":176,"°":177,"±":178,"²":179,"³":180,"´":181,"µ":182,"¶":183,"·":184,"¸":185,"¹":186,"º":187,"»":188,"¼":189,"½":190,"¾":191,"¿":192,"À":193,"Á":194,"Â":195,"Ã":196,"Ä":197,"Å":198,"Æ":199,"Ç":200,"È":201,"É":202,"Ê":203,"Ë":204,"Ì":205,"Í":206,"Î":207,"Ï":208,"Ð":209,"Ñ":210,"Ò":211,"Ó":212,"Ô":213,"Õ":214,"Ö":215,"×":216,"Ø":217,"Ù":218,"Ú":219,"Û":220,"Ü":221,"Ý":222,"Þ":223,"ß":224,"à":225,"á":226,"â":227,"ã":228,"ä":229,"å":230,"æ":231,"ç":232,"è":233,"é":234,"ê":235,"ë":236,"ì":237,"í":238,"î":239,"ï":240,"ð":241,"ñ":242,"ò":243,"ó":244,"ô":245,"õ":246,"ö":247,"÷":248,"ø":249,"ù":250,"ú":251,"û":252,"ü":253,"ý":254,"þ":255,"ÿ":256,"ĉ":257,"Ċ":258,"Ġ":259,"Ģ":260,"ģ":261,"Ĥ":262,"ĥ":263,"Ħ":264,"ħ":265,"Ĩ":266,"ĩ":267,"Ī":268,"ī":269,"Ĭ":270,"ĭ":271,"Į":272,"į":273,"İ":274,"ı":275,"Ĳ":276,"ĳ":277,"Ĵ":278,"ĵ":279,"Ķ":280,"ķ":281,"ĸ":282,"ĺ":283,"Ļ":284,"ļ":285,"Ľ":286,"ľ":287,"Ŀ":288,"ŀ":289,"Ł":290,"ł":291,"Ń":292,"Ġt":293,"he":294,"Ġa":295,"Ġs":296,"nd":297,"Ġw":298,"Ġthe":299,"ed":300,"Ġb":301,"Ġto":302,"Ġand":303,"ĠT":304,"Ġh":305,"Ġf":306,"in":307,"Ġwa":308,"re":309,"it":310,"ou":311,"Ġl":312,"Ġd":313,"Ġc":314,"Ġp":315,"ĠThe":316,"ay":317,"Ġm":318,"er":319,"Ġwas":320,"om":321,"Ġhe":322,"is":323,"ar":324,"Ġn":325,"im":326,"on":327,"Ġsa":328,"id":329,"ll":330,"ĠS":331,"Ġha":332,"Ġg":333,"at":334,"ing":335,"ot":336,"en":337,"an":338,"le":339,"or":340,"end":341,"Ġ\"":342,"ir":343,"ĠH":344,"of":345,"am":346,"ĠThey":347,"et":348,"Ġit":349,"Ġth":350,"ig":351,"ĠHe":352,"Ġin":353,"il":354,"Ġpl":355,"ow":356,"ver":357,"ri":358,"ut":359,"Ġbe":360,"Ġu":361,"Ġsaid":362,"Ġplay":363,"ĠO":364,"ith":365,"ĠTim":366,"Ġday":367,"Ġwith":368,"pp":369,"ĠOn":370,"Ġy":371,"oo":372,"ked":373,"Ġr":374,"ĠI":375,"ĠShe":376,"Ġher":377,"ex":378,"ce":379,"ld":380,"Ġhis":381,"Ġst":382,"ke":383,"ĠL":384,"Ġbig":385,"nt":386,"ck":387,"Ġyou":388,"very":389,"st":390,"ve":391,"ĠB":392,"Ġon":393,"un":394,"Ġhapp":395,"riend":396,"Ġfriend":397,"all":398,"ily":399,"ext":400,"ĠM":401,"Ġthey":402,"oft":403,"Ġwe":404,"Ġhad":405,"Ġnot":406,"Ġli":407,"Ġup":408,"her":409,"Ġwant":410,"Ġof":411,"ad":412,"itt":413,"Ġ<":414,"|>":415,"endoft":416,"Ġ<|":417,"endoftext":418,"se":419,"Ġdo":420,"Ġe":421,"Ġhappy":422,"ent":423,"Ġvery":424,"es":425,"Ġthat":426,"Ġsaw":427,"ĠLily":428,"ĠOne":429,"'s":430,"ĠA":431,"ould":432,"Ġmom":433,"Ġfor":434,"Ġsh":435,"ittle":436,"Ġlittle":437,"ĠTom":438,"Ġshe":439,"ch":440,"ime":441,"Ġnam":442,".\"":443,"Ġtime":444,"Ġk":445,"ound":446,"Ġso":447,"Ġthere":448,"Ġnamed":449,"Ġsm":450,"Ġbo":451,"Ġwere":452,"Ġne":453,"Ġwanted":454,"Ġbut":455,"out":456,"Ġfriends":457,"ved":458,"!\"":459,"ht":460,"ird":461,"el":462,"Ġbird":463,"al":464,"Ġan":465,"ake":466,"ĠIt":467,"Ġtoo":468,"ome":469,"ug":470,"ĠĊ":471,"ide":472,"Ġwent":473,"Ġwh":474,"Ġhel":475,"ĠOnce":476,"Ġis":477,"Ġall":478,"Ġhelp":479,"ue":480,"Ġloo":481,"Ġlo":482,"ter":483,"Ġupon":484,"ry":485,"ore":486,"ind":487,"Ġfun":488,"get":489,"Ġtoy":490,"ill":491,"ame":492,"Ġas":493,"Ġat":494,"ra":495,"Ġj":496,"Ġdid":497,"gether":498,"Ġre":499,"ur":500,"Ġo":501,"Ġse":502,"Ġtogether":503,"ack":504,"Ġcat":505,"ly":506,"Ġtre":507,"ood":508,"ic":509,"ted":510,"Ġdog":511,"Ġcould":512,"Ġcan":513,"Ġtheir":514,"ard":515,"ec":516,"ark":517,"Ġgir":518,"Ġplayed":519,"Ġhim":520,"Ġball":521,"?\"":522,"Ġgirl":523,"Ġro":524,"way":525,"Ġgo":526,"hed":527,"my":528,"Ġare":529,"Ġout":530,"Ġle":531,"Ġfr":532,"ain":533,"ĠBut":534,"hen":535,"Ġkn":536,"Ġthem":537,"um":538,"'t":539,"ax":540,"Ġsad":541,"ĠW":542,"ĠSue":543,"ul":544,"Ġboy":545,"Ġtree":546,"other":547,"Ġhave":548,"Ġman":549,"ĠMax":550,"Ġcl":551,"Ġloved":552,"Ġlooked":553,"oug":554,"Ġfound":555,"Ġsp":556,"Ġstar":557,"one":558,"hing":559,"Ġsc":560,"Ġback":561,"own":562,"ĠBen":563,"are":564,"Ġlike":565,"ful":566,"side":567,"Ġme":568,"Ġbec":569,"ĠSam":570,"Ġpark":571,"ight":572,"ong":573,"Ġcar":574,"ĠJ":575,"op":576,"elt":577,"Ġliked":578,"Ġwould":579,"Ġmake":580,"round":581,"Ġla":582,"Ġfa":583,"Ġfelt":584,"You":585,"ell":586,"Ġsee":587,"omet":588,"Ġasked":589,"ag":590,"Ġnew":591,"Ġno":592,"ice":593,"ouse":594,"Ġstarted":595,"ared":596,"Ġcame":597,"Ġal":598,"Ġother":599,"ought":600,"iled":601,"ĠF":602,"Ġsomet":603,"Ġag":604,"Ġgood":605,"Ġsmall":606,"ss":607,"Ġbr":608,"Ġsmiled":609,"Ġsay":610,"ried":611,"ade":612,"ĠSp":613,"ings":614,"ob":615,"Ġwor":616,"ĠSpot":617,"Ġfind":618,"ia":619,"Ġaway":620,"ty":621,"Ġput":622,"Ġex":623,"Ġwhat":624,"Ġsomething":625,"Ġfrom":626,"Ġmade":627,"Ġthought":628,"ened":629,"Ġhome":630,"Ġplaying":631,"Ġco":632,"ook":633,"Ġevery":634,"Ġwal":635,"Ġmu":636,"uc":637,"ach":638,"arn":639,"Ġran":640,"ile":641,"ie":642,"ĠMia":643,"ave":644,"Ġagain":645,"Ġsome":646,"Ġlaug":647,"dd":648,"Ġhouse":649,"Ġdown":650,"Ġfl":651,"king":652,"Ġtook":653,"Ġscared":654,"Ġpr":655,"ny":656,"ure":657,"Ġtoys":658,"Ġlearn":659,"ĠYou":660,"if":661,"Ġwill":662,"Ġbox":663,"ick":664,"ret":665,"ab":666,"ep":667,"Ġmy":668,"Ġaround":669,"Ġthings":670,"Ġyour":671,"oud":672,"Ġbl":673,"uck":674,"Ġwhen":675,"ish":676,"Ġlived":677,"Ġfe":678,"Ġthen":679,"Ġsun":680,"as":681,"Ġsw":682,"ĠSo":683,",\"":684,"ĠMom":685,"Ġch":686,"us":687,"pped":688,"Ġab":689,"ank":690,"Ġget":691,"ucy":692,"ump":693,"Ġlot":694,"ist":695,"ĠLucy":696,"ĠD":697,"oth":698,"ap":699,"Ġtried":700,"Ġknow":701,"Ġsays":702,"Ġgot":703,"ited":704,"Ġwho":705,"Th":706,"Ġkne":707,"ust":708,"Ġmany":709,"ĠBob":710,"nder":711,"Ġint":712,"Ġabout":713,"Ġpret":714,"Ġdec":715,"Ġany":716,"Ġred":717,"ive":718,"Ġknew":719,"ace":720,"ous":721,"Ġmore":722,"ise":723,"Ġv":724,"Ġcare":725,"ally":726,"Ġpic":727,"au":728,"qu":729,"Ġhug":730,"Ġlearned":731,"Ġpo":732,"Ġwater":733,"fter":734,"Ġbecame":735,"Ġbest":736,"ĠAnd":737,"ause":738,"Ġop":739,"Ġgre":740,"ĠE":741,"Ġexc":742,"urp":743,"ways":744,"âĢ":745,"Ġoutside":746,"Ġlaughed":747,"Ġlook":748,"Ġalways":749,"Ġdecid":750,"Ġshow":751,"Ġun":752,"ant":753,"Ġroom":754,"fe":755,"Ġdecided":756,"Ġho":757,"Ġbecause":758,"Ġinto":759,"Ġeat":760,"ite":761,"Ġjump":762,"Ġpe":763,"Ġboth":764,"ers":765,"ĠThen":766,"Ġdad":767,"udd":768,"Ġke":769,"Ġone":770,"ĠWhen":771,"nn":772,"Ġthis":773,"Ġexcited":774,"Ġfast":775,"Ġnice":776,"Ġfeel":777,"Yes":778,"Ġrun":779,"Ġlong":780,"ĠAnn":781,"Ġtold":782,"Ġsk":783,"Ġam":784,"urpr":785,"our":786,"Ġinside":787,"ull":788,"Ġtr":789,"Ġsurpr":790,"Ġmo":791,"ĠHis":792,"ink":793,"Ġpretty":794,"iny":795,"Ġsor":796,"Ġtake":797,"ĠFr":798,"og":799,"ĠC":800,"Ġsl":801,"Ġeach":802,"Ġgave":803,"hat":804,"Ġmuch":805,"Ġgra":806,"lew":807,"Ġrock":808,"Ġhow":809,"Ġstr":810,"ara":811,"imal":812,"Ġanimal":813,"ged":814,"Ġneed":815,"Ġthan":816,"ĠAnna":817,"ĠAmy":818,"ven":819,"etter":820,"Ġtow":821,"Ġor":822,"ĠAs":823,"Ġunder":824,"ess":825,"Ġold":826,"Ġsorry":827,"ge":828,"ised":829,"ro":830,"urt":831,"ĠSara":832,"Ġcle":833,"Ġfish":834,"Ġwalked":835,"Ġclo":836,"and":837,"here":838,"Ġbear":839,"ase":840,"ast":841,"Ġhand":842,"urn":843,"ĠWe":844,"Ġkind":845,"Ġhappened":846,"Ġjust":847,"Ġflow":848,"ĠHer":849,"Ġfood":850,"Ġlist":851,"Ġdidn":852,"Ġte":853,"Ġanimals":854,"Ġhig":855,"Ġnear":856,"Ġwat":857,"ĠIn":858,"Ġide":859,"Ġtry":860,"ched":861,"Ġsky":862,"ine":863,"Ġsn":864,"pl":865,"ving":866,"Ġfi":867,"Ġus":868,"ĠFrom":869,"Ġidea":870,"Ġbetter":871,"Ġbug":872,"Ġheard":873,"gry":874,"Ġits":875,"Ġtw":876,"Ġlet":877,"pec":878,"ate":879,"able":880,"ff":881,"Ġen":882,"Ġcareful":883,"Ġshare":884,"Ġif":885,"Thank":886,"Ġfly":887,"Ġstor":888,"ial":889,"Ġflew":890,"more":891,"Ġanymore":892,"Ġspec":893,"Ġspecial":894,"ion":895,"Ġcom":896,"Ġlots":897,"Ġnever":898,"Ġby":899,"lf":900,"ream":901,"Ġdan":902,"Ġbu":903,"Ġfo":904,"Ġwind":905,"Ġdon":906,"ĠEvery":907,"Ġtal":908,"Ġclean":909,"ort":910,"Ġgr":911,"Ġlove":912,"rm":913,"ber":914,"Ġend":915,"ople":916,"Ġeven":917,"Ġmag":918,"ĠK":919,"Ġhard":920,"Ġshiny":921,"udden":922,"Ġfore":923,"Ġover":924,"Ġcake":925,"ak":926,"Ġbook":927,"Ġcol":928,"Ġturn":929,"Ġfam":930,"Ġbad":931,"Ġsafe":932,"Ġafter":933,"ady":934,"uddenly":935,"Ġpeople":936,"Ġproud":937,"Ġsurprised":938,"pected":939,"Let":940,"Ġhigh":941,"Ġcu":942,"Ġhurt":943,"Ġcome":944,"imb":945,"arden":946,"Ġdoor":947,"Ġgarden":948,"bb":949,"Ġground":950,"Ġopened":951,"Ġpicked":952,"Ġloud":953,"Ġclimb":954,"expected":955,"Ġunexpected":956,"hy":957,"Ġgl":958,"Ġche":959,"ild":960,"Ġim":961,"Ġgive":962,"Ġway":963,"ail":964,"'m":965,"Ġthanked":966,"Ġcolor":967,"Ġblue":968,"Ġstill":969,"Ġever":970,"Ġhugged":971,"ĠP":972,"Ġcall":973,"Ġfar":974,"ip":975,"No":976,"Ġoff":977,"Ġmagic":978,"iz":979,"age":980,"ough":981,"ummy":982,"Ġjumped":983,"Ġshould":984,"Ġfamily":985,"Ġpar":986,"ool":987,"Ġkid":988,"Ġsmile":989,"ĠJo":990,"hes":991,"uff":992,"Ġplace":993,"kay":994,"Ġwalk":995,"Ġnow":996,"ct":997,"Ġgreat":998,"em":999,"Ġqu":1000,"ĠSuddenly":1001,"les":1002,"Ġstrong":1003,"Ġstay":1004,"Ġunt":1005,"Ġsto":1006,"aut":1007,"Ġforest":1008,"ture":1009,"ane":1010,"Ġbra":1011,"itty":1012,"Ġfrog":1013,"Ġbro":1014,"Ġuntil":1015,"Ġbeaut":1016,"dy":1017,"Ġsqu":1018,"Ġstick":1019,"Ġnext":1020,"Ġboat":1021,"lease":1022,"ning":1023,"ĠSally":1024,"ĠAfter":1025,"ĠN":1026,"Ġhappily":1027,"Ġlisten":1028,"aking":1029,"Ġkids":1030,"Ġtra":1031,"ĠKitty":1032,"ies":1033,"iful":1034,"Ġbeautiful":1035,"Ġapp":1036,"Ġhelped":1037,"Ġdra":1038,"Ġshowed":1039,"Ġclos":1040,"be":1041,"Ġimp":1042,"Ġstory":1043,"unny":1044,"Ġwhile":1045,"Ġtown":1046,"rel":1047,"pt":1048,"Ġrain":1049,"ress":1050,"Ġpicture":1051,"ĠAt":1052,"oy":1053,"Ġbeing":1054,"Ġrem":1055,"Ġeveryone":1056,"ary":1057,"ree":1058,"Ġmor":1059,"ĠR":1060,"Ġhat":1061,"Ġcalled":1062,"Ġmet":1063,"Ġstopped":1064,"Ġad":1065,"Ġgame":1066,"Ġwo":1067,"Can":1068,"Ġangry":1069,"ger":1070,"uffy":1071,"Ġsoft":1072,"ĠFin":1073,"Ġopen":1074,"Ġtruck":1075,"Ġkeep":1076,"Ġcry":1077,"Ġyummy":1078,"ĠTh":1079,"Ġlost":1080,"Ġbed":1081,"ĠLet":1082,"Ġwarm":1083,"by":1084,"vent":1085,"ĠJack":1086,"Ġbrave":1087,"Ġmouse":1088,"Ġate":1089,"oon":1090,"ished":1091,"Ġde":1092,"It":1093,"fore":1094,"Ġdoll":1095,"so":1096,"Ġcouldn":1097,"Ġwatch":1098,"Ġleave":1099,"Ġalso":1100,"dded":1101,"Ġfell":1102,"Ġgreen":1103,"Ġface":1104,"Ġtwo":1105,"ĠFl":1106,"gan":1107,"iss":1108,"Ġflowers":1109,"bit":1110,"ĠâĢ":1111,"ble":1112,"Ġnoise":1113,"What":1114,"abbit":1115,"irst":1116,"owl":1117,"Ġwhere":1118,"az":1119,"ock":1120,"Ġsoon":1121,"self":1122,"Ġslide":1123,"Ġrabbit":1124,"Ġhole":1125,"ĠG":1126,"Ġbefore":1127,"irrel":1128,"Ġpus":1129,"ired":1130,"Ġsat":1131,"illy":1132,"Ġhear":1133,"ĠFluffy":1134,"Ġuse":1135,"Ġpa":1136,"Ġkept":1137,"Hi":1138,"ĠâĢľ":1139,"âĢĿ":1140,"Ġsquirrel":1141,"ear":1142,"ma":1143,"Ġnodded":1144,"ĠNow":1145,"Ġexpl":1146,"Ġstore":1147,"Ġcook":1148,"Ġhands":1149,"Look":1150,"Ġbirds":1151,"Ġpain":1152,"Ġgoing":1153,"Ġfunny":1154,"Ġhaving":1155,"day":1156,"Ġsing":1157,"aybe":1158,"uch":1159,"Ġey":1160,"aug":1161,"Ġcatch":1162,"aught":1163,"ĠCan":1164,"uit":1165,"Ġyell":1166,"Ġthink":1167,"leep":1168,"Ġcra":1169,"Ġfin":1170,"Ġbre":1171,"Ġfix":1172,"Ġtired":1173,"Ġbunny":1174,"Ġused":1175,"Ġlooking":1176,"Ġbus":1177,"ange":1178,"air":1179,"Ġwork":1180,"Ġwr":1181,"ting":1182,"Ġour":1183,"Ġpull":1184,"We":1185,"Ġthr":1186,"That":1187,"thing":1188,"Ġwait":1189,"Ġkit":1190,"Ġsound":1191,"Ġjo":1192,"Ġhas":1193,"Ġmean":1194,"Ġpond":1195,"ember":1196,"Ġbeh":1197,"Ġdr":1198,"Ġsunny":1199,"led":1200,"Ġothers":1201,"Ġask":1202,"ng":1203,"chen":1204,"Ġkitchen":1205,"Ġtalk":1206,"Ġflo":1207,"Ġdif":1208,"Ġpie":1209,"rew":1210,"Ġhead":1211,"Ġreal":1212,"Ġfirst":1213,"Ġtri":1214,"Ġmommy":1215,"Ġeyes":1216,"ello":1217,"Ġimport":1218,"Hello":1219,"Mom":1220,"Ġfav":1221,"ĠDo":1222,"joy":1223,"Ġz":1224,"Ġremember":1225,"Ġright":1226,"Ġflower":1227,"Ġcon":1228,"Ġmess":1229,"ĠWh":1230,"Ġparty":1231,"Ġcold":1232,"Ġvo":1233,"Ġswe":1234,"ious":1235,"ft":1236,"Ġsand":1237,"ac":1238,"ath":1239,"orn":1240,"Ġrace":1241,"Ġcuri":1242,"imes":1243,"Ġimportant":1244,"Ġduck":1245,"Ġmoral":1246,"Ġshared":1247,"zy":1248,"ount":1249,"Ġice":1250,"Ġokay":1251,"Ġadvent":1252,"Ġworked":1253,"llow":1254,"irt":1255,"Ġenjoy":1256,"Ġdress":1257,"Ġbright":1258,"Ġmaking":1259,"Ġcurious":1260,"Ġown":1261,"ĠDad":1262,"Ġtall":1263,"Ġhop":1264,"reed":1265,"Ġhid":1266,"Ġfavor":1267,"Ġri":1268,"hn":1269,"Ġsleep":1270,"Ġdis":1271,"Ġfavorite":1272,"Wow":1273,"Ġthing":1274,"Ġbegan":1275,"Ġmon":1276,"Ġbag":1277,"Ġhill":1278,"Ġcla":1279,"Don":1280,"Ġdraw":1281,"Ġrest":1282,"Ġhere":1283,"Ġyard":1284,"ĠThis":1285,"Ġtell":1286,"ĠJohn":1287,"ster":1288,"Ġwatched":1289,"que":1290,"Ġfollow":1291,"Ġmove":1292,"Ġbel":1293,"ect":1294,"Ġcut":1295,"Ġnight":1296,"Ġagreed":1297,"Ġpick":1298,"co":1299,"Ġblock":1300,"Ġhun":1301,"aper":1302,"lly":1303,"Ġstop":1304,"Ġbehind":1305,"Ġsurprise":1306,"ied":1307,"Ġsho":1308,"Ġhot":1309,"Ġtable":1310,"Ġgrass":1311,"Ġworry":1312,"Ġdark":1313,"Ġtrees":1314,"Ġvoice":1315,"Ġwalking":1316,"fere":1317,"Ġfloor":1318,"Ġfarm":1319,"Ġlion":1320,"Ġtop":1321,"Ġdiffere":1322,"Ġplease":1323,"ĠThat":1324,"ĠMr":1325,"Ġru":1326,"Ġsong":1327,"ĠBobo":1328,"Ġbutter":1329,"Ġtail":1330,"Ġsweet":1331,"Ġshout":1332,"Ġcolors":1333,"Ġread":1334,"Ġlady":1335,"Ġforg":1336,"isy":1337,"ĠJane":1338,"Ġleaves":1339,"Ġcloser":1340,"ign":1341,"Ġcars":1342,"ĠTimmy":1343,"Ġturned":1344,"Ġneeded":1345,"Ġtast":1346,"Why":1347,"aring":1348,"Ġwood":1349,"Ġcried":1350,"Ġdifferent":1351,"Ġlaugh":1352,"Ġdel":1353,"Ġpiece":1354,"âĢĻ":1355,"ered":1356,"Ġroll":1357,"Ġadventure":1358,"Ġfire":1359,"Ġdoes":1360,"ike":1361,"Ġcr":1362,"Ġhungry":1363,"Ġhair":1364,"Ġpaper":1365,"Ġfeeling":1366,"Ġyellow":1367,"Ġfull":1368,"bo":1369,"Ġprin":1370,"Ġtouch":1371,"Ġwet":1372,"Ġfriendly":1373,"Ġper":1374,"oom":1375,"ken":1376,"cked":1377,"ĠMommy":1378,"ached":1379,"Ġswing":1380,"Ġfruit":1381,"ient":1382,"Ġbroken":1383,"Ġready":1384,"ĠAll":1385,"bye":1386,"ppy":1387,"Ġprom":1388,"Ġanother":1389,"Ġlight":1390,"Ġpretend":1391,"Ġdance":1392,"ater":1393,"Ġclimbed":1394,"where":1395,"Ġlistened":1396,"Ġdanc":1397,"Ġrunning":1398,"Ġonly":1399,"Ġplan":1400,"Ġgone":1401,"Ġswim":1402,"bbed":1403,"Ġtrain":1404,"ila":1405,"ndma":1406,"sh":1407,"Ġclose":1408,"av":1409,"art":1410,"Ġsmell":1411,"aby":1412,"Ġamaz":1413,"Ġhold":1414,"Ġblocks":1415,"Ġwonder":1416,"Ġrepl":1417,"ĠEveryone":1418,"ĠLila":1419,"Ġbutterf":1420,"Ġsees":1421,"Ġreached":1422,"Ġwall":1423,"Ġpu":1424,"oney":1425,"Ġslow":1426,"Ġhelping":1427,"Ġdri":1428,"Ġcream":1429,"Ġcool":1430,"Ġglad":1431,"af":1432,"Ġant":1433,"Ġless":1434,"Ġbeen":1435,"Ġgoodbye":1436,"Ġac":1437,"Ġfight":1438,"ather":1439,"ey":1440,"Ġpushed":1441,"iced":1442,"Ġfair":1443,"Ġmust":1444,"Ġhide":1445,"Ġmoment":1446,"Ġwindow":1447,"Ġsit":1448,"Ġar":1449,"Ġballoon":1450,"Ġsnow":1451,"Ġchild":1452,"Ġexplore":1453,"Ġwished":1454,"Ġbaby":1455,"Ġdone":1456,"Ġwag":1457,"Ġste":1458,"Ġbuy":1459,"Ġstuck":1460,"Ġperf":1461,"ĠJust":1462,"ĠSoon":1463,"Ġthank":1464,"Ġmight":1465,"icy":1466,"Ġname":1467,"ized":1468,"Ġtrying":1469,"Ġbit":1470,"Ġcoming":1471,"Ġbar":1472,"Ġquick":1473,"Ġfall":1474,"Ġapple":1475,"ĠTo":1476,"Ġscary":1477,"ash":1478,"Ġlooks":1479,"Ġbuild":1480,"Ġdoing":1481,"irty":1482,"Ġwin":1483,"Ġunderst":1484,"aisy":1485,"Ġdin":1486,"Ġdream":1487,"ĠThere":1488,"Ġdirty":1489,"Ġheld":1490,"ames":1491,"Ġbooks":1492,"Ġmar":1493,"Ġbutterfly":1494,"Ġleft":1495,"Ġshouted":1496,"Ġcount":1497,"Ġreplied":1498,"avy":1499,"Ġreach":1500,"Ġtiny":1501,"Ġthrough":1502,"ott":1503,"Ġdro":1504,"Ġwhy":1505,"Ġair":1506,"Ġbran":1507,"Ġland":1508,"key":1509,"Ġthree":1510,"Ġpulled":1511,"Ġspl":1512,"Ġgrow":1513,"Ġtreat":1514,"Ġbrother":1515,"Ġwise":1516,"Ġwoods":1517,"Ġsure":1518,"'re":1519,"Ġchair":1520,"ix":1521,"Ġmat":1522,"ins":1523,"Ġseen":1524,"Ġpink":1525,"Ġclapped":1526,"Ġplant":1527,"ely":1528,"Ġowl":1529,"Ġcup":1530,"ield":1531,"Ġsometimes":1532,"andy":1533,"Ġfill":1534,"Ġcloud":1535,"ask":1536,"Ġswam":1537,"outh":1538,"Ġjob":1539,"Ġcolorful":1540,"ĠInside":1541,"Ġremembered":1542,"Ġbigger":1543,"Ġnest":1544,"Ġmouth":1545,"Okay":1546,"Ġlesson":1547,"Ġjoin":1548,"Ġcre":1549,"ph":1550,"oup":1551,"room":1552,"Ġwaved":1553,"uddy":1554,"Ġgrabbed":1555,"Ġstayed":1556,"Oh":1557,"Ġpaint":1558,"Ġclot":1559,"Ġcont":1560,"Ġclothes":1561,"ower":1562,"ĠDaisy":1563,"Ġwaited":1564,"Ġquickly":1565,"cle":1566,"Ġword":1567,"Ġbroke":1568,"ucky":1569,"Ġgames":1570,"Ġcast":1571,"ĠBuddy":1572,"Ġblew":1573,"Ġgent":1574,"ĠFinally":1575,"ĠWhile":1576,"Ġenjoyed":1577,"Ġnoticed":1578,"ries":1579,"ation":1580,"Ġset":1581,"Ġlikes":1582,"Ġpictures":1583,"Ġmus":1584,"ton":1585,"de":1586,"Ġsea":1587,"Ġheavy":1588,"Ġalone":1589,"Ġgif":1590,"asure":1591,"Ġanything":1592,"Ġspot":1593,"Ġmiss":1594,"Ġhopped":1595,"Ġworld":1596,"Ġturns":1597,"orm":1598,"Ġyear":1599,"der":1600,"Ġbott":1601,"Ġpat":1602,"Ġpot":1603,"This":1604,"Ġpen":1605,"lc":1606,"ĠSarah":1607,"Ġmix":1608,"Ġarm":1609,"Ġbike":1610,"Ġtight":1611,"ĠTommy":1612,"Ġeverywhere":1613,"Ġwon":1614,"Ġtower":1615,"Ġthrew":1616,"Ġhimself":1617,"Ġfollowed":1618,"Ġride":1619,"man":1620,"ere":1621,"pe":1622,"less":1623,"Ġju":1624,"Ġje":1625,"amp":1626,"ape":1627,"Ġcomp":1628,"Ġkey":1629,"eddy":1630,"row":1631,"ĠWhat":1632,"\".":1633,"Ġwhite":1634,"ctor":1635,"Ġwrong":1636,"Ġmakes":1637,"Ġbreak":1638,"Ġblack":1639,"arent":1640,"ee":1641,"ner":1642,"Ġdeep":1643,"thy":1644,"Ġmusic":1645,"ĠEm":1646,"Ġpol":1647,"Ġdelic":1648,"cess":1649,"ued":1650,"Ġforgot":1651,"Ġbee":1652,"Ġparent":1653,"olly":1654,"Ġcastle":1655,"ves":1656,"Ġem":1657,"Do":1658,"iet":1659,"Ġwear":1660,"Ġhit":1661,"Ġve":1662,"ister":1663,"oun":1664,"Ġquiet":1665,"Ġround":1666,"ĠBilly":1667,"ance":1668,"Ġstu":1669,"Ġdanced":1670,"Ġvis":1671,"ully":1672,"Ġwants":1673,"Ġleaf":1674,"Ġmonster":1675,"Ġnap":1676,"Ġunderstand":1677,"ang":1678,"Ġbowl":1679,"os":1680,"rot":1681,"Ġbor":1682,"Ġtalked":1683,"itten":1684,"ren":1685,"Ġdry":1686,"Ġfaster":1687,"Ġcookies":1688,"ĠGra":1689,"ĠJoe":1690,"Ġbrought":1691,"fully":1692,"Ġleg":1693,"ross":1694,"Ġmum":1695,"zz":1696,"Ġside":1697,"Ġsign":1698,"Ġsmart":1699,"cy":1700,"Ġrocks":1701,"Ġsomeone":1702,"Ġpoin":1703,"Ġsec":1704,"Ġsharing":1705,"Ġfox":1706,"Ġwell":1707,"Ġres":1708,"Ġrel":1709,"Ġhappen":1710,"Ġbutton":1711,"Ġbranch":1712,"Ġreally":1713,"Ġfinished":1714,"ence":1715,"ards":1716,"Ġdinner":1717,"Ġsister":1718,"Ġflying":1719,"Ġcontin":1720,"Ġworried":1721,"Ġele":1722,"ĠZ":1723,"Ġvisit":1724,"ĠMaybe":1725,"Ġbeach":1726,"Ġque":1727,"th":1728,"Ġsecret":1729,"Ġel":1730,"Ġking":1731,"Ġgift":1732,"gy":1733,"Ġtoday":1734,"Ġperfect":1735,"Ġriver":1736,"Ġeverything":1737,"Ġsilly":1738,"Ġshin":1739,"ipp":1740,"Ġdanger":1741,"Ġchildren":1742,"Ġgu":1743,"Ġfield":1744,"Ġfilled":1745,"Ġfur":1746,"Ġelse":1747,"Ġsmiles":1748,"Ġwelc":1749,"Ġwish":1750,"Ġsang":1751,"Ġgi":1752,"ze":1753,"Ġpudd":1754,"Ġsnack":1755,"Ġeating":1756,"Ġrealized":1757,"Ġpieces":1758,"Ġpromised":1759,"ĠCh":1760,"ord":1761,"Ġspr":1762,"Ġpig":1763,"Ġfree":1764,"Ġcontinued":1765,"Ġstart":1766,"Ġbite":1767,"ead":1768,"Ġparents":1769,"Ġcarefully":1770,"ated":1771,"itting":1772,"Ġjar":1773,"Ġcow":1774,"Maybe":1775,"Ġblank":1776,"Ġdrag":1777,"stead":1778,"Ġorange":1779,"Ġmud":1780,"Ġcrying":1781,"Ġblanket":1782,"Ġenough":1783,"Ġrolled":1784,"cket":1785,"Ġsoup":1786,"Ġsail":1787,"Ġpurp":1788,"imi":1789,"Ġyes":1790,"ale":1791,"Ġdrink":1792,"Ġsnake":1793,"ses":1794,"Ġboun":1795,"Ġpet":1796,"Ġcrab":1797,"Ġlaughing":1798,"Ġthrow":1799,"Ġfairy":1800,"Ġwords":1801,"Ġamazing":1802,"ĠJim":1803,"Ġbath":1804,"ich":1805,"Ġpurple":1806,"ĠJen":1807,"Ġwithout":1808,"ire":1809,"ĠMimi":1810,"Ġbottle":1811,"Ġgrandma":1812,"used":1813,"ons":1814,"Ġpast":1815,"Ġmoney":1816,"iver":1817,"fort":1818,"Ġmail":1819,"Ġbarked":1820,"Ġwagged":1821,"Ġatt":1822,"chool":1823,"Ġmonkey":1824,"Ġdoctor":1825,"unch":1826,"Ġbrown":1827,"Ġmoved":1828,"ises":1829,"Ġasks":1830,"ĠBl":1831,"Ġgetting":1832,"Ġclosed":1833,"Ġwhe":1834,"Ġwelcome":1835,"Ġsu":1836,"Ġcandy":1837,"Ġschool":1838,"Ġmorning":1839,"Ġowner":1840,"gg":1841,"Ġlon":1842,"Ġmother":1843,"Ġhigher":1844,"Ġsitting":1845,"Ġtreasure":1846,".âĢĿ":1847,"Ġsmo":1848,"!âĢĿ":1849,"Ġdangerous":1850,"Ġlonely":1851,"Ġliving":1852,"Ġapples":1853,"Ġshop":1854,"ased":1855,"Ġstrange":1856,"vel":1857,"ush":1858,"Ġshining":1859,"Ġroad":1860,"Ġcreat":1861,"una":1862,"Ġpaw":1863,"Ġ-":1864,"Ġra":1865,"Ġshoes":1866,"Ġpre":1867,"ible":1868,"Ġstre":1869,"Ġtalking":1870,"althy":1871,"Ġcaught":1872,"Ġegg":1873,"ol":1874,"Ġpass":1875,"me":1876,"Ġlake":1877,"Ġruns":1878,"Ġbuck":1879,"Ġletter":1880,"Ġwings":1881,"Ġchee":1882,"fish":1883,"Ġmad":1884,"Ġfan":1885,"asket":1886,"Ġbasket":1887,"ass":1888,"Ġdragon":1889,"app":1890,"But":1891,"set":1892,"cks":1893,"Ġstone":1894,"Ġthinks":1895,"Tim":1896,"Ġstand":1897,"Ġdelicious":1898,"Ġnose":1899,"Ġpuddle":1900,"Ġtom":1901,"Ġbelie":1902,"Ġfarmer":1903,"Ġsame":1904,"Ġyears":1905,"board":1906,"Ġteddy":1907,"Ġbat":1908,"isk":1909,"itch":1910,"Ġmine":1911,"Ġsear":1912,"Ġcoat":1913,"ches":1914,"ĠEmma":1915,"igh":1916,"Ġdays":1917,"Ġbring":1918,"Ġgentle":1919,"Ġfit":1920,"ĠTogether":1921,"Ġfinally":1922,"Ġwhist":1923,"ars":1924,"Ġcray":1925,"igg":1926,"Ġscream":1927,"Ġkite":1928,"ĠMolly":1929,"Ġheart":1930,"Ġpill":1931,"phant":1932,"arm":1933,"ĠRe":1934,"Ġvill":1935,"Ġcho":1936,"Ġsinging":1937,"The":1938,"ella":1939,"sw":1940,"ined":1941,"Ġtasty":1942,"Ġben":1943,"Ġph":1944,"Ġtrou":1945,"Ġshell":1946,"Ġherself":1947,"Ġhoped":1948,"Ġansw":1949,"Ġwore":1950,"Ġswings":1951,"sy":1952,"Ġhor":1953,"Ġbelong":1954,"Please":1955,"Ġpush":1956,"iskers":1957,"Ġcarrot":1958,"Ġarri":1959,"aughty":1960,"Ġteach":1961,"ĠBlue":1962,"bow":1963,"ract":1964,"Ġnaughty":1965,"Ġbush":1966,"Ġelephant":1967,"Ġdropped":1968,"Ġshap":1969,"ier":1970,"Ġcoll":1971,"sc":1972,"Ġteac":1973,"Ġwoke":1974,"red":1975,"ball":1976,"Ġpile":1977,"Ġhiding":1978,"Ġcour":1979,"ĠTheir":1980,"ĠWhiskers":1981,"Ġpart":1982,"isa":1983,"erry":1984,"Ġtouc":1985,"Ġmin":1986,"Ġpuppy":1987,"'ll":1988,"Ġseem":1989,"llie":1990,"Ġtwins":1991,"ama":1992,"Ġlunch":1993,"Ġbow":1994,"Ġsack":1995,"ĠRemy":1996,"Ġpers":1997,"Tom":1998,"Ġcourse":1999,"Ġcheered":2000,"Ġshapes":2001,"Ġgrew":2002,"ĠBella":2003,"fused":2004,"Ġrope":2005,"Ġvillage":2006,"irth":2007,"irthday":2008,"Ġjuice":2009,"ipped":2010,"Ġrainbow":2011,"ĠLisa":2012,"Ġspin":2013,"OK":2014,"ĠMark":2015,"Ġshook":2016,"Ġspoon":2017,"Ġbench":2018,"Ġstreet":2019,"Ġfence":2020,"Ġcute":2021,"ĠLe":2022,"Ġrob":2023,"Ġnut":2024,"Ġcheese":2025,"Ġprob":2026,"Ġtouched":2027,"idge":2028,"col":2029,"Ġjoy":2030,"ĠJill":2031,"Ġarrived":2032,"Ġseed":2033,"Ġwar":2034,"Ġteacher":2035,"Ġcorn":2036,"Good":2037,"Ġforever":2038,"Ġable":2039,"Ġbell":2040,"Ġfew":2041,"Ġcarry":2042,"ĠGrandma":2043,"Ġmost":2044,"Ġplane":2045,"lem":2046,"Ġeas":2047,"Ġsounds":2048,"lla":2049,"Ġdes":2050,"Ġspo":2051,"Ġproblem":2052,"Ġbirthday":2053,"Ġpower":2054,"Ġinc":2055,"umb":2056,"br":2057,"Ġbugs":2058,"ilk":2059,"Ġwonderful":2060,"ĠThank":2061,"Ġdolls":2062,"Ġbusy":2063,"ato":2064,"irp":2065,"Ġwra":2066,"Ġpromise":2067,"Ġfeels":2068,"ian":2069,"eter":2070,"Ġbread":2071,"ost":2072,"Ġneck":2073,"Ġmilk":2074,"Ġrobot":2075,"Ġrec":2076,"Ġshy":2077,"ountain":2078,"Ġkiss":2079,"Ġband":2080,"Ġcave":2081,"Ġpocket":2082,"eb":2083,"ub":2084,"Ġhelpful":2085,"gly":2086,"Ġslowly":2087,"Ġbelieve":2088,"Ġshake":2089,"umpy":2090,"eared":2091,"Ġpatient":2092,"Ġpop":2093,"Ġob":2094,"arp":2095,"Ġlive":2096,"Ġstorm":2097,"ĠFred":2098,"Ġholding":2099,"Ġugly":2100,"Ġtowards":2101,"Ġupset":2102,"Ġturt":2103,"Ġshr":2104,"adow":2105,"Ġcover":2106,"Ġkitten":2107,"Ġsharp":2108,"Ġdisapp":2109,"Ġstories":2110,"Ġsuc":2111,"Ġhoney":2112,"ove":2113,"read":2114,"Ġnoises":2115,"Ġcir":2116,"Ġballs":2117,"ĠLater":2118,"Ġspark":2119,"Ġgray":2120,"Ġdist":2121,"Ġdirt":2122,"oggy":2123,"Ġlate":2124,"Ġdriver":2125,"Ġseat":2126,"Ġbucket":2127,"Ġmeet":2128,"Ġyoung":2129,"Ġamazed":2130,"Ġturtle":2131,"alm":2132,"Ġspid":2133,"Ġtreats":2134,"ĠBe":2135,"Ġmagical":2136,"unt":2137,"ator":2138,"Ġglow":2139,"Ġseek":2140,"Ġzoom":2141,"Ġlem":2142,"Ġsandw":2143,"fortable":2144,"umber":2145,"Ġtrip":2146,"Ġmist":2147,"Ġsplas":2148,"ĠLeo":2149,"ourn":2150,"Ġmark":2151,"Ġjourn":2152,"Ġfold":2153,"Ġmach":2154,"Ġpuzz":2155,"ling":2156,"Ġhorse":2157,"Ġorgan":2158,"Ġwild":2159,"Ġprincess":2160,"pping":2161,"oose":2162,"Ġcookie":2163,"ens":2164,"Ġhugs":2165,"Lily":2166,"Ġtaking":2167,"ung":2168,"Ġwheel":2169,"epend":2170,"Ġcloth":2171,"Ġsug":2172,"Ġinstead":2173,"Ġbubb":2174,"Ġstring":2175,"Ġnet":2176,"Ġdrove":2177,"iling":2178,"Ġrude":2179,"Ġhuge":2180,"Ġcoin":2181,"Ġstars":2182,"Ġfighting":2183,"Ġspicy":2184,"Ġlucky":2185,"Sure":2186,"Of":2187,"Ġcraw":2188,"Hey":2189,"Ġbone":2190,"Ġinv":2191,"ors":2192,"not":2193,"ĠMary":2194,"Ġca":2195,"pper":2196,"Ġforget":2197,"up":2198,"Ġdi":2199,"aur":2200,"Ġsal":2201,"ert":2202,"Ġcannot":2203,"Ġwhistle":2204,"Ġcard":2205,"Ġsick":2206,"Ġpath":2207,"Ġcou":2208,"Ġspider":2209,"Ġwide":2210,"ĠMama":2211,"Ġfoot":2212,"Ġsnowman":2213,"Ġlife":2214,"Ġsongs":2215,"Ġpillow":2216,"ize":2217,"ĠBu":2218,"Ġfixed":2219,"ĠCat":2220,"est":2221,"Ġgiant":2222,"rill":2223,"Ġcart":2224,"ĠWith":2225,"Ġnod":2226,"Ġboss":2227,"ular":2228,"Ġlast":2229,"Ġcomes":2230,"Ġjoke":2231,"ĠLuna":2232,"Ġmoon":2233,"Ġtaste":2234,"den":2235,"Ġmachine":2236,"Ġgrumpy":2237,"ĠDaddy":2238,"Ġwave":2239,"Ġthin":2240,"Ġdrive":2241,"Ġash":2242,"Ġser":2243,"Ġgrab":2244,"Ġpeace":2245,"Ġdaddy":2246,"ery":2247,"Ġsel":2248,"Ġshelf":2249,"Ġhidden":2250,"erest":2251,"Ġsuddenly":2252,"Ġwasn":2253,"Ġwrite":2254,"Ġlanded":2255,"Ġconfused":2256,"lower":2257,"Ġring":2258,"Ġchange":2259,"Ġworm":2260,"oop":2261,"Ġinterest":2262,"Ġchased":2263,"Ġfruits":2264,"Ġsour":2265,"ity":2266,"Ġmyster":2267,"Ġbark":2268,"Ġrad":2269,"Ġsmooth":2270,"ĠCome":2271,"Ġadventures":2272,"Ġval":2273,"Ġstepped":2274,"Ġfle":2275,"ope":2276,"Ġoven":2277,"ĠChirp":2278,"Ġtakes":2279,"Ġmissed":2280,"let":2281,"Ġselfish":2282,"kin":2283,"Ġsheep":2284,"Ġmessy":2285,"Ġacross":2286,"Ġent":2287,"Ġexp":2288,"to":2289,"Ġce":2290,"Ġlater":2291,"elly":2292,"ife":2293,"ever":2294,"Ġsticks":2295,"Ġtie":2296,"pect":2297,"Ġbought":2298,"Ġstep":2299,"Ġdrew":2300,"Ġban":2301,"box":2302,"?âĢĿ":2303,"Ġwash":2304,"Ġlay":2305,"Ġpour":2306,"ose":2307,"Ġbeak":2308,"Ġjog":2309,"Ġgrate":2310,"ĠMomo":2311,"Ġducks":2312,"Ġspe":2313,"Ġlegs":2314,"ugg":2315,"Ġfil":2316,"Ġemp":2317,"mer":2318,"Ġhope":2319,"Ġtea":2320,"Ġempty":2321,"Ġslid":2322,"Ġfeather":2323,"Ġshirt":2324,"Ġsleepy":2325,"Ġdrum":2326,"amed":2327,"ĠChirpy":2328,"Ġzoo":2329,"Ġpan":2330,"eth":2331,"Ġphone":2332,"Ġgrateful":2333,"Ġfing":2334,"ions":2335,"ĠOllie":2336,"Ġlemon":2337,"Ġclever":2338,"Ġsmelly":2339,"Ġimag":2340,"Ġinteresting":2341,"Ġsave":2342,"Ġchick":2343,"Ġcalm":2344,"Ġsplash":2345,"Ġmed":2346,"Ġwatching":2347,"izzy":2348,"ĠJerry":2349,"izz":2350,"Ġplate":2351,"Ġign":2352,"ĠBunny":2353,"yard":2354,"Ġclouds":2355,"Ġbanan":2356,"Ġline":2357,"Ġfaces":2358,"Ġba":2359,"Ġact":2360,"Ġthough":2361,"Ġwolf":2362,"Ġbackyard":2363,"wel":2364,"Ġseemed":2365,"Ġdogs":2366,"ĠJimmy":2367,"Ġspray":2368,"ĠDoggy":2369,"Come":2370,"Ġprot":2371,"Ġwhole":2372,"Ġmot":2373,"Ġfancy":2374,"Ġquest":2375,"Ġarms":2376,"Ġpuzzle":2377,"Ġhealthy":2378,"Ġsupp":2379,"ward":2380,"Ġfinish":2381,"erly":2382,"Ġalong":2383,"llo":2384,"Ġrocket":2385,"Ġexplain":2386,"ult":2387,"dge":2388,"Ġeasy":2389,"ont":2390,"Ġjewel":2391,"Ġpract":2392,"Ġjelly":2393,"Ġtid":2394,"Ġfake":2395,"Ġcrayons":2396,"Ġwondered":2397,"Ġmaybe":2398,"Ġscar":2399,"Ġship":2400,"Ġnothing":2401,"onest":2402,"Ġemb":2403,"iger":2404,"Ġpool":2405,"Ġlonger":2406,"ĠSt":2407,"Ġanyone":2408,"ually":2409,"Ġfront":2410,"Ġworking":2411,"Ġgives":2412,"irr":2413,"Ġpack":2414,"Ġsuch":2415,"ocked":2416,"ment":2417,"Ġbossy":2418,"Ġtrouble":2419,"Ġsmelled":2420,"Ġsaved":2421,"Ġpin":2422,"rass":2423,"Ġneigh":2424,"St":2425,"arrass":2426,"iting":2427,"Ġhonest":2428,"Ġav":2429,"arge":2430,"Ġembarrass":2431,"Ġlift":2432,"Ġvan":2433,"Ġforgive":2434,"Ġtidy":2435,"Ġweak":2436,"urse":2437,"Ġputs":2438,"unk":2439,"Ġkick":2440,"ĠMum":2441,"Ġmind":2442,"Ġneighb":2443,"Ġplants":2444,"ĠBobby":2445,"Ġsol":2446,"Ġgently":2447,"Ġcozy":2448,"orrow":2449,"Ġprint":2450,"ming":2451,"Ġexplor":2452,"sp":2453,"Ġmistake":2454,"Ġyog":2455,"oc":2456,"oomy":2457,"Ġpointed":2458,"Ġlad":2459,"Ġaf":2460,"Ġstood":2461,"ork":2462,"Ġonto":2463,"Ġjumping":2464,"Ġwaiting":2465,"Ġprince":2466,"Ġcross":2467,"Ġlock":2468,"Ġcheer":2469,"Ġqueen":2470,"ĠWhy":2471,"Ġwing":2472,"ones":2473,"we":2474,"Ġlarge":2475,"Ġlovely":2476,"Ġsur":2477,"Ġret":2478,"Ġdeer":2479,"Ġchew":2480,"Ġcouch":2481,"Ġbal":2482,"ĠMy":2483,"Ġstret":2484,"aughter":2485,"era":2486,"Ġplaces":2487,"Be":2488,"Ġladder":2489,"Ġreturn":2490,"raid":2491,"ĠSomet":2492,"Ġear":2493,"Ġants":2494,"Ġdish":2495,"Ġafraid":2496,"Ġcleaned":2497,"Ġtomorrow":2498,"Ġbuilding":2499,"Ġsandwich":2500,"Ġperson":2501,"ek":2502,"ned":2503,"Ġpretended":2504,"Ġbounce":2505,"Ġwip":2506,"gest":2507,"Ġmatch":2508,"Ġrich":2509,"uce":2510,"Ġpizz":2511,"Ġgather":2512,"Ġsearch":2513,"Ġboring":2514,"ĠTiny":2515,"oman":2516,"Ġteeth":2517,"Ġhum":2518,"aced":2519,"Ġdaughter":2520,"Ġwoman":2521,"Ġscarf":2522,"Ġgoes":2523,"Ġlaw":2524,"My":2525,"Ġstra":2526,"Ġswimming":2527,"Ġfurry":2528,"Ġsplashed":2529,"ĠAl":2530,"Ġpri":2531,"Ġloves":2532,"Ġtrue":2533,"ĠBird":2534,"Ġscreamed":2535,"Ġlazy":2536,"Ġgen":2537,"Ġanswer":2538,"Ġnumber":2539,"Ġeag":2540,"Ġashamed":2541,"Ġpizza":2542,"aw":2543,"Ġappeared":2544,"Ġfear":2545,"Ġnearby":2546,"Ġpowerful":2547,"Ġflag":2548,"Ġhang":2549,"vous":2550,"Ġclown":2551,"Ġchase":2552,"Ġmotor":2553,"Ġwand":2554,"ĠBenny":2555,"ĠTV":2556,"Ġrub":2557,"Ġsuccess":2558,"Ġchocol":2559,"ĠIf":2560,"Ġcreative":2561,"Ġtrust":2562,"Ġwearing":2563,"Ġnoisy":2564,"Ġmatter":2565,"pa":2566,"Ġdig":2567,"ĠDucky":2568,"Ġhello":2569,"Ġner":2570,"Ġtool":2571,"Ġsaf":2572,"ado":2573,"Ġnervous":2574,"elp":2575,"Ġtest":2576,"Ġsmiling":2577,"Ġsold":2578,"icked":2579,"oppy":2580,"osaur":2581,"Ġcircle":2582,"mb":2583,"Now":2584,"ĠHow":2585,"Ġmap":2586,"Ġdrank":2587,"Ġclass":2588,"Ġtries":2589,"Ġchocolate":2590,"ĠPlease":2591,"Ġimpress":2592,"Ġknee":2593,"Ġgener":2594,"Ġdinosaur":2595,"Ġpolite":2596,"Ġmirr":2597,"ĠGo":2598,"Ġballoons":2599,"Ġgold":2600,"Ġrare":2601,"Ġprotect":2602,"Ġcand":2603,"Stop":2604,"ĠDon":2605,"Ġcarried":2606,"ensive":2607,"Ġap":2608,"Ġshadow":2609,"Ġmirror":2610,"Ġbald":2611,"Ġgun":2612,"ina":2613,"Ġexpensive":2614,"Ġreg":2615,"iff":2616,"Ġmysterious":2617,"Ġpump":2618,"Ġnote":2619,"Ġhero":2620,"ĠU":2621,"Ġmarch":2622,"Ġrespect":2623,"Ġhar":2624,"arl":2625,"Ġicy":2626,"Ġweird":2627,"ĠBear":2628,"Ġsnee":2629,"Ġcri":2630,"Ġgate":2631,"Ġsoap":2632,"rag":2633,"ute":2634,"issors":2635,"Ġthese":2636,"Ġpoor":2637,"Ġtowel":2638,"Ġwhale":2639,"Ġfeet":2640,"Ġtape":2641,"Ġdizzy":2642,"itter":2643,"Ġgenerous":2644,"ndpa":2645,"Ġpres":2646,"nic":2647,"Ġdisco":2648,"Help":2649,"ventually":2650,"Ġpicnic":2651,"Ġmic":2652,"Ġlead":2653,"Ġsque":2654,"ĠSometimes":2655,"Ġembarrassed":2656,"Ġjourney":2657,"isp":2658,"Ġsugar":2659,"scape":2660,"Ġboot":2661,"Ġtent":2662,"Ġpeaceful":2663,"Ġfat":2664,"Ġscissors":2665,"Ġtasted":2666,"Ġyelled":2667,"Ġtick":2668,"Ġmel":2669,"Ġbrush":2670,"ĠElla":2671,"Ġdancing":2672,"ness":2673,"Ġglue":2674,"Ġhur":2675,"Ġrough":2676,"Ġclap":2677,"Ġbridge":2678,"ote":2679,"Ġdecor":2680,"Ġcloset":2681,"Ġcrown":2682,"Ġstir":2683,"ĠAndy":2684,"ual":2685,"imp":2686,"owed":2687,"airs":2688,"ume":2689,"Ġcap":2690,"Ġlamp":2691,"Ġvase":2692,"Ġscare":2693,"lebr":2694,"Ġrelie":2695,"lves":2696,"any":2697,"Ġeld":2698,"Ġtele":2699,"Ġcelebr":2700,"Ġgigg":2701,"Ġwhisp":2702,"Ġlog":2703,"Ġblow":2704,"Ġpainted":2705,"Ġsco":2706,"Ġpay":2707,"erries":2708,"Ġwis":2709,"Ġberries":2710,"Ġmixed":2711,"Ġspread":2712,"Ġwouldn":2713,"Ġcage":2714,"Ġbake":2715,"rob":2716,"getable":2717,"Ġmountain":2718,"Ġadm":2719,"Ġdrawing":2720,"Ġbecome":2721,"ĠBr":2722,"Ġfamous":2723,"Ġbean":2724,"Ġknocked":2725,"Ġnorm":2726,"Ġvegetable":2727,"asp":2728,"Ġkicked":2729,"ustr":2730,"Ġshark":2731,"ser":2732,"Ġincred":2733,"Ġlose":2734,"Ġnormal":2735,"Ġwrap":2736,"ĠSome":2737,"ced":2738,"Ġgroup":2739,"Ġthick":2740,"Ġ3":2741,"Ġfine":2742,"Ġglass":2743,"Ġignor":2744,"oph":2745,"Ġclock":2746,"Ġteam":2747,"ĠJenny":2748,"ĠPe":2749,"Ġelderly":2750,"Ġclear":2751,"Ġcorner":2752,"Max":2753,"Ġfrustr":2754,"Ġmighty":2755,"robe":2756,"Ġcone":2757,"Ġincredible":2758,"ighed":2759,"Ġmoms":2760,"Ġbalance":2761,"Ġsock":2762,"Ġspace":2763,"Ġjam":2764,"ragile":2765,"Ġfright":2766,"Ġbranches":2767,"Ġorganized":2768,"Ġroar":2769,"port":2770,"Ġsword":2771,"alous":2772,"Ġguess":2773,"Ġfool":2774,"Ġsell":2775,"Ġfeed":2776,"ĠSammy":2777,"Ġwhich":2778,"Ġhorn":2779,"Mommy":2780,"Ġpresent":2781,"Ġjealous":2782,"Ġyarn":2783,"ony":2784,"Ġfragile":2785,"Ġburn":2786,"Ġunderstood":2787,"Ġmis":2788,"Ġstubb":2789,"Ġter":2790,"Wh":2791,"Ġfrustrated":2792,"ray":2793,"Ġhose":2794,"cient":2795,"Where":2796,"Ġspent":2797,"Ġshoe":2798,"Ġtaught":2799,"Ġstubborn":2800,"Ġtwist":2801,"Ġcreature":2802,"Ġchest":2803,"Ġspoiled":2804,"Ġrelieved":2805,"Ġancient":2806,"ĠTr":2807,"ique":2808,"Ġwake":2809,"Ġfier":2810,"Ġpray":2811,"Ġfierce":2812,"Ġeggs":2813,"Ġcab":2814,"Ġterri":2815,"Ġbarn":2816,"Ġpumpkin":2817,"Ġcomfortable":2818,"Ġord":2819,"Ġfrightened":2820,"orry":2821,"Ġtoug":2822,"Ġunique":2823,"Ġmeasure":2824,"Ġgoat":2825,"Ġwagon":2826,"Ġunus":2827,"Ġbreath":2828,"Ġfoolish":2829,"Ġ'":2830,"Ġuseful":2831,"Ġexploring":2832,"dle":2833,"Ġstraw":2834,"Ġunusual":2835,"Ġdug":2836,"Ġclay":2837,"Ġdiscover":2838,"Ġtomato":2839,"Ġdead":2840,"Ġfinding":2841,"Ġpolice":2842,"Ġwrote":2843,"Ġclum":2844,"ym":2845,"Ġexam":2846,"lace":2847,"ĠRex":2848,"Ġwaves":2849,"Ġsquare":2850,"Ġhears":2851,"Ġcabin":2852,"Ġtells":2853,"Ġnecklace":2854,"Ġdull":2855,"Ġclumsy":2856,"Ġtough":2857,"Ġbubbles":2858,"Ġnosy":2859,"kn":2860,"Ġsearched":2861,"Ġwashed":2862,"Ġbathroom":2863,"Ġpaws":2864,"ĠWill":2865,"bby":2866,"ond":2867,"unn":2868,"anged":2869,"Ġboard":2870,"known":2871,"fic":2872,"Ġasking":2873,"Ġcrazy":2874,"Ġthankful":2875,"Ġbitter":2876,"Ġsunf":2877,"yal":2878,"Ġpir":2879,"berry":2880,"Ġind":2881,"alk":2882,"Ġdiffic":2883,"Ġrose":2884,"cil":2885,"Ġswan":2886,"Ġbloom":2887,"Ġunknown":2888,"Ġcovered":2889,"Ġdifficult":2890,"Ġadd":2891,"Ġpencil":2892,"Ġfinger":2893,"Ġham":2894,"Ġhoop":2895,"Ġjet":2896,"Ġwitch":2897,"Ġdrop":2898,"Ġchicken":2899,"Ġgloomy":2900,"apped":2901,"Ġloyal":2902,"als":2903,"Ġwealthy":2904,"com":2905,"light":2906,"ĠMany":2907,"Ġunl":2908,"Ġcats":2909,"Ġending":2910,"Ġguit":2911,"bled":2912,"Here":2913,"shine":2914,"Ġdove":2915,"Ġsort":2916,"Ġjoined":2917,"Ġcher":2918,"anut":2919,"Ġmov":2920,"Ġterrible":2921,"Ġyours":2922,"iant":2923,"Ġsalad":2924,"Ġnuts":2925,"Ġrat":2926,"Ġlif":2927,"ground":2928,"Ġtiger":2929,"Ġpotato":2930,"Ġmask":2931,"xible":2932,"selves":2933,"Ġvalue":2934,"Ġchanged":2935,"ĠBrown":2936,"Ġmoving":2937,"Ġexciting":2938,"ormous":2939,"Ġbody":2940,"ĠInstead":2941,"Ġtoast":2942,"Ġrecord":2943,"erp":2944,"Ġzip":2945,"Ġcheap":2946,"Ġdisg":2947,"Ġguitar":2948,"irsty":2949,"Ġknowing":2950,"Ġadventur":2951,"Ġyourself":2952,"Ġenormous":2953,"Ġhairy":2954,"Ġshoot":2955,"Ġbored":2956,"Ġpepper":2957,"Ġremind":2958,"ory":2959,"Ġacorn":2960,"land":2961,"Ġadventurous":2962,"Ġsunshine":2963,"Ġsmaller":2964,"Ġstuff":2965,"Ġhats":2966,"Ġsolve":2967,"Ġflexible":2968,"Ġcost":2969,"rilliant":2970,"Ġknife":2971,"Ġperform":2972,"Ġsnacks":2973,"Ġnods":2974,"Ġshore":2975,"Ġbrilliant":2976,"Ġthirsty":2977,"Ġdelicate":2978,"ĠNo":2979,"Ġfrown":2980,"Ġdisgust":2981,"Ġcollect":2982,"Ġstri":2983,"Ġseeds":2984,"Ġcounted":2985,"Ġasleep":2986,"Ġbanana":2987,"reen":2988,"Ġmailbox":2989,"iness":2990,"Ġtrick":2991,"Ġdough":2992,"Ġneighbor":2993,"Ben":2994,"ungle":2995,"Ġheal":2996,"ilt":2997,"live":2998,"Who":2999,"ĠLittle":3000,"Ġstage":3001,"ident":3002,"Ġmarket":3003,"Ġcube":3004,"Ġstat":3005,"Ġjungle":3006,"Ġsquee":3007,"mbre":3008,"Ġexplained":3009,"ates":3010,"Ġumbre":3011,"Me":3012,"Ġdisgusting":3013,"Ġlab":3014,"Ġjolly":3015,"und":3016,"inal":3017,"Ġfridge":3018,"Ġcrane":3019,"corn":3020,"Ġsuit":3021,"Ġflash":3022,"pid":3023,"iddle":3024,"Ġsunflower":3025,"Ġtimes":3026,"ict":3027,"Ġcaterp":3028,"Ġcaterpill":3029,"Ġrelax":3030,"Ġshiver":3031,"Ġfour":3032,"Ġisland":3033,"iginal":3034,"Ġharm":3035,"ying":3036,"Ġstupid":3037,"Ġmedic":3038,"Ġcomb":3039,"Ġgoose":3040,"Ġcro":3041,"edient":3042,"ĠJake":3043,"Ġstove":3044,"If":3045,"Are":3046,"Ġindepend":3047,"most":3048,"Ġspring":3049,"Ġgem":3050,"Ġbatter":3051,"Ġsighed":3052,"Ġvegetables":3053,"Ġstones":3054,"ĠYour":3055,"pes":3056,"Ġshine":3057,"Ġmedicine":3058,"Ġdepend":3059,"Ġrug":3060,"Ġcareless":3061,"Ġoriginal":3062,"Ġstamp":3063,"Ġgar":3064,"Ġcries":3065,"gu":3066,"Ġcarrots":3067,"Ġscr":3068,"Ġsuccessful":3069,"Ġsauce":3070,"Ġjeep":3071,"Ġpopcorn":3072,"Ġmeal":3073,"Ġobedient":3074,"Ġalmost":3075,"Ġmiddle":3076,"Ġmagn":3077,"Ġstudy":3078,"Ġindependent":3079,"ĠEmily":3080,"Ġfearful":3081,"Ġjack":3082,"met":3083,"inky":3084,"Sorry":3085,"Ġescape":3086,"Ġcaterpillar":3087,"Ġserious":3088,"Ġpeanut":3089,"Ġbedroom":3090,"Ġeager":3091,"aken":3092,"Ġgets":3093,"Ġparrot":3094,"Ġstatue":3095,"Ġhelmet":3096,"Ġpebb":3097,"Ġfountain":3098,"ĠToday":3099,"Ġang":3100,"Ġraven":3101,"Ġpasta":3102,"Ġumbrella":3103,"Ġcompet":3104,"arth":3105,"Ġjacket":3106,"Ġbelonged":3107,"Ġdest":3108,"Ġfilthy":3109,"Ġdesign":3110,"Ġborrow":3111,"Ġcam":3112,"erable":3113,"Ġhouses":3114,"Ġbelt":3115,"Ġprize":3116,"Ġhay":3117,"Ġbrace":3118,"Ġstanding":3119,"Ġmiserable":3120,"Ġbracelet":3121,"Ġraced":3122,"Ġtaken":3123,"ages":3124,"Ġfork":3125,"Ġcrayon":3126,"Ġpainting":3127,"io":3128,"Ġtriang":3129,"Ġimpressive":3130,"Ġchoose":3131,"Ġfig":3132,"Ġpoint":3133,"Ġtied":3134,"iable":3135,"Ġspotted":3136,"Ġlifted":3137,"Ġslipped":3138,"ours":3139,"Ġtank":3140,"Ġthoughtful":3141,"Ġdependable":3142,"Ġsteal":3143,"Ġgarage":3144,"Ġbuilt":3145,"Ġer":3146,"ipe":3147,"ĠSn":3148,"Ġmole":3149,"Ġcrawled":3150,"Ġscale":3151,"Ġboats":3152,"Ġpant":3153,"Ġpian":3154,"Ġhammer":3155,"Ġbottom":3156,"ĠTrue":3157,"Ġcheerful":3158,"lph":3159,"Ġusing":3160,"ĠPeter":3161,"Ġsmoke":3162,"Ġpicks":3163,"Sam":3164,"Ġmoder":3165,"Ġshows":3166,"berries":3167,"rn":3168,"Ġpiano":3169,"Ġmagnet":3170,"dile":3171,"codile":3172,"Ġhurts":3173,"inary":3174,"Ġref":3175,"Ġcrack":3176,"Ġeng":3177,"oin":3178,"Ġaunt":3179,"Ġmelon":3180,"ĠEven":3181,"Ġwaff":3182,"Ġmodern":3183,"Ġdolph":3184,"unnel":3185,"cream":3186,"pack":3187,"Ġtunnel":3188,"Ġarrow":3189,"Ġmush":3190,"Ġreliable":3191,"Ġhopping":3192,"Ġmushroom":3193,"Ġjug":3194,"Ġsquash":3195,"Ġgum":3196,"Ġsink":3197,"Ġmovie":3198,"Ġtax":3199,"Ġflute":3200,"Ġbeet":3201,"Ġlean":3202,"iv":3203,"Ġpopular":3204,"icop":3205,"icopter":3206,"Ġcryst":3207,"Ġones":3208,"Ġsil":3209,"Ġcompetit":3210,"Ġhelicopter":3211,"aser":3212,"Ġneeds":3213,"ipop":3214,"llipop":3215,"Ġcrocodile":3216,"Ġliz":3217,"Ġpress":3218,"Ġtroubled":3219,"Ġpige":3220,"Ġlocked":3221,"Ġtricks":3222,"Ġlollipop":3223,"Ġplayful":3224,"Ġhumble":3225,"Ġtaxi":3226,"Ġkissed":3227,"Ġlow":3228,"appy":3229,"comfortable":3230,"amond":3231,"Ġrid":3232,"Ġuncomfortable":3233,"host":3234,"Ġwander":3235,"atch":3236,"Ġangel":3237,"edy":3238,"cles":3239,"Ġtorn":3240,"Ġgrace":3241,"Ġanx":3242,"Ġwrapped":3243,"Ġmuff":3244,"Ġtwig":3245,"Ġpants":3246,"Ġdisappoin":3247,"Ġhelps":3248,"Ġdiamond":3249,"Ġcamera":3250,"oto":3251,"Ġanxious":3252,"Ġghost":3253,"atter":3254,"Ġtears":3255,"Ġruined":3256,"How":3257,"ĠSus":3258,"cident":3259,"ilty":3260,"Ġquar":3261,"aff":3262,"Ġfis":3263,"opl":3264,"eropl":3265,"Ġenv":3266,"Ġguilty":3267,"Ġbull":3268,"Ġaeropl":3269,"Ġhelpless":3270,"Ġhappiness":3271,"Ġlizard":3272,"Ġboys":3273,"cut":3274,"Ġcere":3275,"Ġwalks":3276,"cean":3277,"Ġpassed":3278,"tt":3279,"Ġmeant":3280,"Ġocean":3281,"Ġfluffy":3282,"Ġwire":3283,"Ġnail":3284,"Ġdeaf":3285,"zed":3286,"Ġstretch":3287,"Ġcact":3288,"Ġcandle":3289,"Ġbeetle":3290,"Ġmop":3291,"Ġharmless":3292,"umpet":3293,"Ġordinary":3294,"Ġanswered":3295,"Ġcop":3296,"Ġcollar":3297,"Ġbees":3298,"Ġtire":3299,"Ġshape":3300,"Ġquarrel":3301,"Ġradio":3302,"Ġflashlight":3303,"Ġcrystal":3304,"Ġharder":3305,"Ġpoured":3306,"Ġtrumpet":3307,"Ġengine":3308,"Ġpersist":3309,"Ġhunt":3310,"Ġtooth":3311,"Ġcereal":3312,"Ġinvited":3313,"Ġcomput":3314,"Ġtag":3315,"Ġoffice":3316,"Ġmelt":3317,"Ġspill":3318,"Ġcharm":3319,"coa":3320,"Ġlit":3321,"Ġscoot":3322,"Ġcomet":3323,"Ġtriangle":3324,"ief":3325,"Ġmug":3326,"Ġrep":3327,"ube":3328,"Ġyogurt":3329,"Ġspend":3330,"Ġcompass":3331,"Ġaccident":3332,"Ġshade":3333,"ĠPipp":3334,"hett":3335,"aghett":3336,"aghetti":3337,"Ġdisappointed":3338,"Ġlicked":3339,"Ġcactus":3340,"Ġpale":3341,"Ġcush":3342,"Ġfigure":3343,"Ġgiving":3344,"Ġavoc":3345,"Ġregular":3346,"Ġsheet":3347,"Ġwhispered":3348,"ĠPoppy":3349,"aze":3350,"uth":3351,"ellig":3352,"ĠDan":3353,"Ġcreate":3354,"Ġbarber":3355,"Ġintellig":3356,"Ġpipe":3357,"Ġrode":3358,"Ġroof":3359,"Ġthread":3360,"ither":3361,"Ġlibr":3362,"Ġload":3363,"Ġvi":3364,"Ġgifted":3365,"ccol":3366,"Ġpracticed":3367,"Ġdelight":3368,"ccoli":3369,"Ġharsh":3370,"Ġdust":3371,"Ġpow":3372,"asses":3373,"Ġbicy":3374,"azz":3375,"Ġspaghetti":3376,"Ġcompassion":3377,"Ġsailed":3378,"urkey":3379,"Ġforward":3380,"ubby":3381,"Ġpersistent":3382,"Ġspeed":3383,"Ġmitten":3384,"Ġpro":3385,"Ġcocoa":3386,"Ġenvel":3387,"ĠBuzz":3388,"Ġquestions":3389,"Ġcomputer":3390,"Ġcoo":3391,"Ġfeathers":3392,"Ġglove":3393,"ging":3394,"Ġrice":3395,"Ġshrimp":3396,"Ġdesk":3397,"Ġstream":3398,"Ġinse":3399,"Ġpigeon":3400,"Ġcharming":3401,"hip":3402,"Ġears":3403,"Ġcarp":3404,"lcan":3405,"Ġenvious":3406,"Ġknot":3407,"Ġturkey":3408,"Ġstronger":3409,"omes":3410,"Ġcoins":3411,"Ġtap":3412,"Ġraft":3413,"lcano":3414,"weet":3415,"Ġtrap":3416,"ĠPolly":3417,"umbers":3418,"Ġaeroplane":3419,"Ġtrunk":3420,"Ġwheat":3421,"Ġboxes":3422,"Ġchubby":3423,"Ġcarpet":3424,"Ġrestless":3425,"Ġintelligent":3426,"Ġtube":3427,"Ġspun":3428,"Ġdreams":3429,"Ġhalf":3430,"Ġfriendship":3431,"ulif":3432,"olin":3433,"ĠMummy":3434,"Ġloop":3435,"Ġcrawl":3436,"Ġbroccoli":3437,"Ġonion":3438,"Ġweek":3439,"Ġdeliver":3440,"Ġacce":3441,"Ġvide":3442,"Ġvolcano":3443,"Ġsle":3444,"Ġtrack":3445,"Ġbri":3446,"Ġcaulif":3447,"Ġvine":3448,"ye":3449,"Ġticket":3450,"Ġthief":3451,"essie":3452,"cycle":3453,"Ġlouder":3454,"Ġinsect":3455,"Ġnumbers":3456,"asing":3457,"Ġyaw":3458,"Ġhaircut":3459,"ital":3460,"Ġsleeping":3461,"ĠAlice":3462,"Ġmill":3463,"Ġalert":3464,"Ġeventually":3465,"Ġexcite":3466,"Ġpebble":3467,"Ġhosp":3468,"Ġattract":3469,"Ġplanet":3470,"anger":3471,"Ġuniver":3472,"isted":3473,"ulu":3474,"Ġeraser":3475,"Ġhospital":3476,"Ġreturned":3477,"Ġdestro":3478,"Ġgraceful":3479,"Ġhappening":3480,"ĠBet":3481,"ache":3482,"ĠOK":3483,"Ġdecide":3484,"Ġlearning":3485,"Ġscreen":3486,"rework":3487,"Ġnicely":3488,"Ġleop":3489,"Ġcauliflower":3490,"Ġcompetitive":3491,"Ġpoem":3492,"Ġcelebrate":3493,"ĠPet":3494,"acht":3495,"Ġcurt":3496,"Ġpeach":3497,"Ġsoldier":3498,"Ġsaus":3499,"Ġparade":3500,"atient":3501,"Ġattractive":3502,"Ġcurtain":3503,"Ġbase":3504,"Ġdolphin":3505,"Ġviolin":3506,"Ġways":3507,"Ġtravel":3508,"ats":3509,"Ġrod":3510,"Ġignorant":3511,"ulb":3512,"Ġwheels":3513,"Ġyacht":3514,"Ġscatter":3515,"Ġdeter":3516,"Ġcompassionate":3517,"Ġbarrel":3518,"Ġenvelope":3519,"Ġbubble":3520,"Ġlying":3521,"Ġfirework":3522,"Go":3523,"ĠLulu":3524,"Ġquestion":3525,"zzy":3526,"Ġscooter":3527,"Ġdeterm":3528,"Ġrag":3529,"Ġthu":3530,"Ġbicycle":3531,"elery":3532,"Ġneedle":3533,"Ġjudge":3534,"Ġbulb":3535,"Ġleopard":3536,"Ġtem":3537,"Ġpony":3538,"Ġcricket":3539,"Ġhomes":3540,"Ġorder":3541,"Ġador":3542,"tern":3543,"Ġtruth":3544,"Ġhook":3545,"dom":3546,"Ġrubbed":3547,"igator":3548,"Ġbushes":3549,"Ġuncle":3550,"ĠMiss":3551,"Ġcushion":3552,"Ġspell":3553,"Ġgrown":3554,"Sue":3555,"Ġcooked":3556,"Ġadorable":3557,"Ġchalk":3558,"Ġsoar":3559,"Ġpurse":3560,"Ġskin":3561,"Ġthemselves":3562,"Ġimpatient":3563,"Ġcelery":3564,"Ġtray":3565,"ĠSh":3566,"Ġshells":3567,"Ġpengu":3568,"Ġsniff":3569,"Ġprun":3570,"Ġwalls":3571,"Ġseal":3572,"ĠPete":3573,"Ġlively":3574,"Ġcase":3575,"Ġalligator":3576,"Ġdistant":3577,"Ġradish":3578,"Ġsaying":3579,"Ġspeak":3580,"Ġmotorcycle":3581,"ĠTina":3582,"Ġmeat":3583,"Ġsend":3584,"ĠBirdy":3585,"Ġspinning":3586,"Ġforth":3587,"illa":3588,"Ġcounting":3589,"Ġenth":3590,"Ġbounced":3591,"Ġchain":3592,"Ġed":3593,"Ġcleaning":3594,"ebra":3595,"Ġfilm":3596,"Ġslept":3597,"Ġpit":3598,"Ġsurf":3599,"Ġmarry":3600,"usia":3601,"Ġwallet":3602,"Ġenthusia":3603,"Ġmetal":3604,"urb":3605,"ebook":3606,"Ġbin":3607,"Ġnotebook":3608,"Ġskip":3609,"Ġwiped":3610,"ision":3611,"chair":3612,"Ġbiggest":3613,"Ġimpro":3614,"Ġavocado":3615,"Ġbehave":3616,"Ġdestroy":3617,"vator":3618,"ĠFo":3619,"Ġbandage":3620,"Ġlaughs":3621,"Ġsteak":3622,"Ġpattern":3623,"Ġpost":3624,"Ġelevator":3625,"Ġdive":3626,"Ġshut":3627,"Ġskipped":3628,"Ġunlock":3629,"Ġdiary":3630,"dest":3631,"ject":3632,"Ġmint":3633,"Ġzebra":3634,"Ġbags":3635,"ating":3636,"Ġarmchair":3637,"rage":3638,"aged":3639,"Ġdisturb":3640,"Ġoy":3641,"Ġpole":3642,"Ġshowing":3643,"Ġclub":3644,"Ġgathered":3645,"Ġnurse":3646,"bul":3647,"Ġearth":3648,"Ġenc":3649,"Sp":3650,"Ġstranger":3651,"Ġsweater":3652,"Ġjellyfish":3653,"Ġscrew":3654,"ĠSusie":3655,"ĠRob":3656,"Ġtemp":3657,"Ġcompl":3658,"Ġmixer":3659,"Give":3660,"Ġskull":3661,"Ġlime":3662,"Ġbump":3663,"bulance":3664,"ĠCl":3665,"Ġambulance":3666,"nam":3667,"Ġfather":3668,"Ġjournal":3669,"Ġloudly":3670,"ito":3671,"Ġfolder":3672,"Ġshield":3673,"Ġlibrary":3674,"Ġbuttons":3675,"Ġplayground":3676,"Ġtrucks":3677,"Ġink":3678,"Ġlights":3679,"Ġtummy":3680,"Ġpointing":3681,"Ġcity":3682,"Ġdecorate":3683,"Ġstation":3684,"irit":3685,"Ġprep":3686,"Ġfalls":3687,"quito":3688,"Ġfu":3689,"ention":3690,"nger":3691,"ĠRose":3692,"Ġherb":3693,"Ġornam":3694,"Ġornament":3695,"Ġmodest":3696,"Ġguard":3697,"lies":3698,"Ġmos":3699,"Ġknows":3700,"Ġcord":3701,"Ġpolish":3702,"Ġmarble":3703,"Ġmosquito":3704,"umbled":3705,"Ġsalt":3706,"Ġattic":3707,"Ġwhenever":3708,"Ġvest":3709,"ctop":3710,"Ġresc":3711,"Ġyet":3712,"Ġple":3713,"Ġdisappeared":3714,"oby":3715,"ceed":3716,"Ġonce":3717,"Ġstrawberry":3718,"Ġkay":3719,"Ġbrothers":3720,"Ġitch":3721,"Ġpirate":3722,"Ġfootball":3723,"Ġsplit":3724,"kele":3725,"keleton":3726,"Ġhipp":3727,"Ġaut":3728,"Ġled":3729,"uring":3730,"ctopus":3731,"Ġdriving":3732,"Ġcable":3733,"Ġsupport":3734,"Ġcalling":3735,"Ġcupboard":3736,"aky":3737,"ĠSunny":3738,"ushed":3739,"Ġwishes":3740,"Ġcomplet":3741,"Ġtripped":3742,"ĠTweet":3743,"ĠPeople":3744,"Ġroot":3745,"Ġkayak":3746,"Ġoctopus":3747,"obile":3748,"Ġadded":3749,"ĠZoom":3750,"Ġedge":3751,"Ġmild":3752,"stic":3753,"Ġdetermined":3754,"Ġsucceed":3755,"?\".":3756,"Ġreading":3757,"omobile":3758,"Ġcoal":3759,"gl":3760,"utes":3761,"Ġsuggest":3762,"par":3763,"Well":3764,"Ġstack":3765,"Ġthunder":3766,"Ġkindness":3767,"Ġautomobile":3768,"Ġcomplain":3769,"Ġenthusiastic":3770,"Ġsneeze":3771,"Ġcartoon":3772,"Ġyoga":3773,"Ġgrowl":3774,"htub":3775,"Ġflea":3776,"Ġmeadow":3777,"Ġdrawer":3778,"Ġbathtub":3779,"Ġribb":3780,"ophone":3781,"Ġhall":3782,"Ġgolf":3783,"Ġmeans":3784,"Ġskeleton":3785,"ĠBetty":3786,"Ġmath":3787,"Ġveil":3788,"Ġhunter":3789,"Re":3790,"Ġgor":3791,"Ġflame":3792,"Ġpoke":3793,"Ġvideo":3794,"Ġchess":3795,"Ġcups":3796,"Ġglowing":3797,"Ġmatt":3798,"Ġoyster":3799,"work":3800,"Ġpenny":3801,"Ġspear":3802,"Ġitself":3803,"essert":3804,"Ġdrawings":3805,"Ġhippo":3806,"Ġrepair":3807,"Ġswitch":3808,"glasses":3809,"Ġsunglasses":3810,"Ġteleph":3811,"Ġcostume":3812,"Ġdessert":3813,"Ġzipp":3814,",âĢĿ":3815,"Ġrepe":3816,"Ġmuffin":3817,"Ġarg":3818,"Ġpastry":3819,"Ġpun":3820,"Ġrolling":3821,"Ġminutes":3822,"Ġmakeup":3823,"Ġpacked":3824,"iron":3825,"ric":3826,"Ġwaffle":3827,"case":3828,"Ġhandle":3829,"Ġpear":3830,"Ġmaze":3831,"Ġtelephone":3832,"ĠToby":3833,"ophy":3834,"Ġpine":3835,"ait":3836,"ĠPippin":3837,"Ġgear":3838,"Ġhedge":3839,"Ġmattress":3840,"Ġpackage":3841,"aving":3842,"Ġshocked":3843,"ines":3844,"Ġtrophy":3845,"Ġpowder":3846,"Ġknight":3847,"Ġcob":3848,"ĠBessie":3849,"Ġmissile":3850,"Ġframe":3851,"Ġmanaged":3852,"Ġencou":3853,"Ġwife":3854,"Spot":3855,"Ġok":3856,"Ġsepar":3857,"web":3858,"Ġstairs":3859,"Ġrot":3860,"Ġcamp":3861,"time":3862,"rophone":3863,"urch":3864,"Ġmagaz":3865,"Ġstrugg":3866,"Ġcolour":3867,"Ġgrapes":3868,"old":3869,"Ġfile":3870,"ĠZip":3871,"head":3872,"Ġbasketball":3873,"Bye":3874,"per":3875,"Ġcobweb":3876,"Ġperm":3877,"Ġwool":3878,"Ġmicrophone":3879,"esday":3880,"Ġeye":3881,"Ġleash":3882,"Ġgasp":3883,"iew":3884,"keep":3885,"Ġweep":3886,"ĠSpike":3887,"Ġbarking":3888,"ature":3889,"Ġsafely":3890,"Ġtear":3891,"ĠSnow":3892,"Ġview":3893,"Ġslides":3894,"offe":3895,"Ġsteps":3896,"istol":3897,"offee":3898,"Ġbananas":3899,"Ġstaff":3900,"Ġspirit":3901,"Ġtask":3902,"Ġgiggled":3903,"Ġhoc":3904,"ĠLook":3905,"Ġhockey":3906,"Ġvend":3907,"Ġthose":3908,"Ġgorilla":3909,"Ġcooler":3910,"was":3911,"cing":3912,"Ġearly":3913,"Ġmarched":3914,"rosc":3915,"washer":3916,"Ġflour":3917,"Ġhotel":3918,"Ġsailor":3919,"ĠMar":3920,"hic":3921,"Ġphoto":3922,"roscope":3923,"Ġvehic":3924,"ilot":3925,"Ġoft":3926,"Ġoften":3927,"Ġchurch":3928,"Ġcooking":3929,"Ġremain":3930,"ĠNext":3931,"hin":3932,"Ġfive":3933,"ĠMrs":3934,"otter":3935,"Ġsausage":3936,"Ġten":3937,"Ġtools":3938,"See":3939,"Ġmedal":3940,"Ġeither":3941,"Ġfireman":3942,"chor":3943,"Ġgrandpa":3944,"Ġotter":3945,"Ġbaseball":3946,"Ġpistol":3947,"Ġpretending":3948,"Ġdishwasher":3949,"Ġrever":3950,"Ġorganize":3951,"Ġpee":3952,"Ġvendor":3953,"Ġknock":3954,"Ġsight":3955,"Ġgrill":3956,"Ġtemple":3957,"Ġbattery":3958,"Ġthinking":3959,"Ġopens":3960,"Ġow":3961,"ĠKim":3962,"ĠGrandpa":3963,"Ġrealised":3964,"Ġiron":3965,"Ġlaser":3966,"Ġsne":3967,"Ġoil":3968,"Ġsandbox":3969,"ĠUn":3970,"Ġpatch":3971,"Ġhours":3972,"Ġrise":3973,"Ġwhip":3974,"ne":3975,"'d":3976,"ctory":3977,"ĠGive":3978,"Ġanchor":3979,"Ġtrash":3980,"Ġskirt":3981,"ense":3982,"Ġshort":3983,"ney":3984,"Ġrhin":3985,"Ġfactory":3986,"seum":3987,"Ġmay":3988,"Ġward":3989,"ately":3990,"Ġcardboard":3991,"ugged":3992,"Ġlotion":3993,"Ġmessage":3994,"Ġvalu":3995,"Ġwardrobe":3996,"Ġcell":3997,"Ġmuseum":3998,"apers":3999,"Ġur":4000,"ination":4001,"Ġhanging":4002,"eer":4003,"ucet":4004,"ailable":4005,"Ġhive":4006,"Ġtowers":4007,"keeper":4008,"Ġblackboard":4009,"Ġmem":4010,"Ġexcitement":4011,"Ġcoffee":4012,"Ġpilot":4013,"ready":4014,"Ġnapkin":4015,"Ġpenguin":4016,"Ġcheck":4017,"loo":4018,"ron":4019,"Ġreward":4020,"Ġquit":4021,"Ġcane":4022,"Ġpicking":4023,"place":4024,"azor":4025,"Ġig":4026,"Ġfaucet":4027,"Ġpassport":4028,"Ġstumbled":4029,"Ġdreamed":4030,"Ġigloo":4031,"enny":4032,"aroo":4033,"angaroo":4034,"Ġfreez":4035,"Ġjuicy":4036,"Ġallowed":4037,"play":4038,"Ġholds":4039,"Ġalready":4040,"Ġavailable":4041,"Ġsett":4042,"Ġbathe":4043,"ĠEverywhere":4044,"Ġtornado":4045,"imney":4046,"Ġfingers":4047,"htray":4048,"Ġhanger":4049,"Ġnewsp":4050,"Ġsize":4051,"Ġlaund":4052,"Ġlend":4053,"Ġchimney":4054,"ĠBefore":4055,"Ġlaundry":4056,"Ġoak":4057,"Ġfisher":4058,"Ġkangaroo":4059,"Ġmen":4060,"Ġtelling":4061,"Ġnovel":4062,"body":4063,"Ġmummy":4064,"Ġpal":4065,"Ġmule":4066,"Ġcherries":4067,"Ġnotice":4068,"Ġpractice":4069,"Ġspilled":4070,"Ġreind":4071,"Ġcomplete":4072,"Ġenjoying":4073,"Ġmicroscope":4074,"Ġgain":4075,"ampoo":4076,"Ġsub":4077,"Ġfireplace":4078,"Ġimagine":4079,"anda":4080,"Ġdisplay":4081,"ocer":4082,"Ġfastest":4083,"Ġmagazine":4084,"Ġhurry":4085,"Ġcabinet":4086,"Ġshrink":4087,"ĠTeddy":4088,"Ġashtray":4089,"Wait":4090,"Ġcows":4091,"gen":4092,"Ġpalace":4093,"Ġimprove":4094,"aches":4095,"arian":4096,"Ġrake":4097,"Ġreindeer":4098,"Ġfalling":4099,"ilet":4100,"oceros":4101,"ured":4102,"ĠMandy":4103,"Ġdiscovered":4104,"Ġstared":4105,"Ġroared":4106,"aid":4107,"Ġsilver":4108,"Ġtub":4109,"Ġtrail":4110,"Ġminer":4111,"There":4112,"come":4113,"Ġbill":4114,"Ġfog":4115,"iction":4116,"Ġax":4117,"stairs":4118,"Ġhut":4119,"Ġhappier":4120,"Ġtoilet":4121,"Ġtaller":4122,"ictionary":4123,"Ġoats":4124,"Ġfisherman":4125,"Ġobject":4126,"Ġpor":4127,"vision":4128,"Ġvaluable":4129,"Ġshampoo":4130,"ĠHere":4131,"Ġholes":4132,"Ġoffered":4133,"Ġboots":4134,"Ġrhinoceros":4135,"Ġnames":4136,"ĠDolly":4137,"Ġclimbing":4138,"Ġblin":4139,"vice":4140,"Ġstretched":4141,"iest":4142,"Ġzipper":4143,"Is":4144,"Ġlistening":4145,"Ġsym":4146,"Ġbathrobe":4147,"alend":4148,"Ġjewelry":4149,"Ġjokes":4150,"Ġtelevision":4151,"Ġprov":4152,"Ġcalend":4153,"Ġstops":4154,"Ġaxe":4155,"Ġjumps":4156,"Ġfuel":4157,"cu":4158,"Ġsparkly":4159,"Ġperfume":4160,"Ġbury":4161,"bol":4162,"Ġpressed":4163,"Ow":4164,"lu":4165,"reek":4166,"Ġrece":4167,"Ġneat":4168,"Ġcreek":4169,"Ġpopped":4170,"Ġopera":4171,"Ġcalendar":4172,"Ġsnap":4173,"Ġattach":4174,"Ġgasped":4175,"Ġsymbol":4176,"Ġtuna":4177,"Ġpapers":4178,"Ġunpack":4179,"Ġresist":4180,"Ġdictionary":4181,"Ġsubway":4182,"Ġletters":4183,"Ġfreezer":4184,"Ġchose":4185,"Ġpinch":4186,"ĠMike":4187,"zag":4188,"Ġspoke":4189,"Ġanyway":4190,"Ġsuper":4191,"Ġhelper":4192,"Ġporch":4193,"affe":4194,"Ġbikes":4195,"Ġlie":4196,"iches":4197,"Ġcomfort":4198,"Ġtightly":4199,"Ġshaking":4200,"Ġbookcase":4201,"ĠPandy":4202,"Ġson":4203,"ĠAre":4204,"Ġrazor":4205,"aurant":4206,"Ġsandwiches":4207,"arry":4208,"Ġext":4209,"igzag":4210,"Ġweigh":4211,"Ġagainst":4212,"Ġstickers":4213,"Ġrestaurant":4214,"Ġnewspaper":4215,"Ġblouse":4216,"te":4217,"Ġvehicle":4218,"Ġswinging":4219,"Ġped":4220,"Ġdisag":4221,"Ġnature":4222,"Ġsquirrels":4223,"Ġbelongs":4224,"ival":4225,"Ġswamp":4226,"Ġbutterflies":4227,"Ġgym":4228,"del":4229,"Ġinclu":4230,"Ġgrowing":4231,"Ġbuckle":4232,"omed":4233,"Ġstirred":4234,"Ġmustache":4235,"Ġbillboard":4236,"xy":4237,"Ġbeep":4238,"Ġalarm":4239,"Ġlip":4240,"Ġfest":4241,"Ġlightning":4242,"Ġhung":4243,"utor":4244,"Ġdistance":4245,"Ġcards":4246,"ogn":4247,"Ġobser":4248,"Ġagree":4249,"Ġtease":4250,"Ġrecogn":4251,"Ġrubber":4252,"ik":4253,"Ġhate":4254,"Ġsof":4255,"fast":4256,"Ġdoesn":4257,"Ġmusician":4258,"Ġadvice":4259,"Ġfort":4260,"Ġbeef":4261,"Ġserve":4262,"Ouch":4263,"aspoon":4264,"Ġsweetie":4265,"ef":4266,"Ġmodel":4267,"lter":4268,"Ġblueberries":4269,"Ġcrib":4270,"Ġsofa":4271,"Ġcircles":4272,"Ġbreakfast":4273,"Ġtutor":4274,"asis":4275,"Ġbookshe":4276,"ĠEllie":4277,"Ġgiraffe":4278,"stri":4279,"Ġfestival":4280,"Ġseparate":4281,"Ġshelter":4282,"Ġgas":4283,"Ġairport":4284,"Ġolive":4285,"ĠCo":4286,"ĠDave":4287,"Ġrail":4288,"Ġbookshelf":4289,"Ġfrogs":4290,"Ġteaspoon":4291,"Ġreverse":4292,"Ġjunk":4293,"Ġriding":4294,"Ġpleased":4295,"Ġdrain":4296,"Ġwipe":4297,"Ġoasis":4298,"Ġsoil":4299,"Ġahead":4300,"Ġrescue":4301,"Ġleaving":4302,"ĠBill":4303,"ummer":4304,"ĠBubb":4305,"Ġpainter":4306,"Ġchance":4307,"Ġsqueeze":4308,"Ġknob":4309,"Ġpoked":4310,"Ġpeeked":4311,"Ġlumber":4312,"Dad":4313,"Ġtrains":4314,"la":4315,"Ġextra":4316,"Ġslipp":4317,"ĠJohnny":4318,"Ġquiz":4319,"Ġrefused":4320,"res":4321,"rmomet":4322,"Ġpage":4323,"Ġrules":4324,"Ġhappens":4325,"Ġins":4326,"Ġsounded":4327,"Ġwinter":4328,"ĠV":4329,"Ġdancer":4330,"Ġbirdc":4331,"Ġdisappear":4332,"rmometer":4333,"ĠCarl":4334,"Ġwaste":4335,"Ġweather":4336,"Ġlic":4337,"Ġbirdcage":4338,"Ġtheater":4339,"Ġreef":4340,"Ġcarrying":4341,"ĠSpe":4342,"Ġinvite":4343,"ĠBow":4344,"iform":4345,"Ġgoal":4346,"Ġostri":4347,"Ġswung":4348,"Ġuniform":4349,"Ġtrade":4350,"Ġcliff":4351,"ience":4352,"Ġlawn":4353,"ola":4354,"Ġleaned":4355,"angu":4356,"Ġaccept":4357,"They":4358,"ĠBoun":4359,"Ġadmire":4360,"Ġaccidentally":4361,"Ġpastel":4362,"Ġstom":4363,"Ġlangu":4364,"ĠLee":4365,"Ġtwir":4366,"Ġsuff":4367,"Ġpanda":4368,"na":4369,"riger":4370,"Ġbet":4371,"rigerator":4372,"Ġpeek":4373,"render":4374,"Ġblinked":4375,"Ġstarts":4376,"Ġrefrigerator":4377,"Ġanywhere":4378,"!\".":4379,"Ġimagined":4380,"Ġdreaming":4381,"Ġremove":4382,"night":4383,"Ġshower":4384,"Ġceiling":4385,"Ġclassroom":4386,"Ġcaring":4387,"ĠBuzzy":4388,"ium":4389,"ĠSoph":4390,"ĠWhere":4391,"Ġgrand":4392,"ĠJazz":4393,"Ġmissing":4394,"aked":4395,"Ġlicense":4396,"Ġstable":4397,"Ġthermometer":4398,"ĠBig":4399,"Ġmonkeys":4400,"astic":4401,"Ġwarned":4402,"Ġsummer":4403,"Ġabove":4404,"Ġbrick":4405,"ected":4406,"Ġcudd":4407,"med":4408,"ĠPat":4409,"Ġproblems":4410,"amber":4411,"Ġchasing":4412,"Ġapron":4413,"Ġlabel":4414,"Ġsent":4415,"iture":4416,"urniture":4417,"Ġlawy":4418,"Ġlid":4419,"uggage":4420,"ĠBinky":4421,"Ġrespectful":4422,"Ġfurniture":4423,"Ġfrowned":4424,"Ġzoomed":4425,"Ġpages":4426,"Ġprevent":4427,"Ġbent":4428,"ĠEventually":4429,"Ġluggage":4430,"ĠRed":4431,"ĠLola":4432,"Ġmistakes":4433,"Ġsunset":4434,"Ġostrich":4435,"He":4436,"ison":4437,"Ġsuggested":4438,"Ġwindows":4439,"ations":4440,"Ġjail":4441,"Ġwine":4442,"ĠFreddy":4443,"Ġribbon":4444,"Ġolder":4445,"Ġshouts":4446,"Ġgrape":4447,"Ġwigg":4448,"ucture":4449,"Ġstructure":4450,"Ġspoil":4451,"eor":4452,"Ġfixing":4453,"Ġchamber":4454,"Ġlions":4455,"Ġdelay":4456,"Ġfinds":4457,"Ġhanded":4458,"Ġsearching":4459,"Ġunite":4460,"Ġfought":4461,"Ġlawyer":4462,"Ġbrightly":4463,"Ġmeeting":4464,"Ġpair":4465,"Did":4466,"Ġchoice":4467,"Ġart":4468,"ĠHel":4469,"Ġsurprises":4470,"Ġfavour":4471,"eterin":4472,"adium":4473,"eterinarian":4474,"ĠY":4475,"Ġstadium":4476,"low":4477,"Ġproudly":4478,"iki":4479,"ĠGeor":4480,"Ġveterinarian":4481,"vet":4482,"Ġchairs":4483,"Ġslip":4484,"rod":4485,"Ann":4486,"Ġsadly":4487,"Ġincre":4488,"Ġpuddles":4489,"Ġberry":4490,"Ġintrod":4491,"Ġranch":4492,"veal":4493,"Ġargue":4494,"Ġadmired":4495,"ĠOlive":4496,"Ġcur":4497,"Ġfavourite":4498,"ĠPa":4499,"Ġinf":4500,"Your":4501,"Ġexcitedly":4502,"Ġrac":4503,"Ġgrabs":4504,"mend":4505,"Ġsteam":4506,"thank":4507,"Ġhuman":4508,"ĠRu":4509,"sity":4510,"ĠSpeedy":4511,"Ġpushing":4512,"Ġsaving":4513,"Ġreveal":4514,"ommend":4515,"Ġyield":4516,"alley":4517,"olog":4518,"Ġmall":4519,"Ġreminded":4520,"Ġrecommend":4521,"Ġleak":4522,"Ġsurrender":4523,"Ġharb":4524,"Ġappl":4525,"cuss":4526,"Ġweap":4527,"Ġregret":4528,"Ġputting":4529,"Ġvalley":4530,"ĠBubbles":4531,"ĠGeorge":4532,"ĠLilly":4533,"Ġmineral":4534,"Ġevening":4535,"elcome":4536,"Ġforgave":4537,"Ġmatches":4538,"Ġsneezed":4539,"Ġaw":4540,"Ġpup":4541,"Ġrushed":4542,"ecause":4543,"Ġspade":4544,"Ġapolog":4545,"Ġplates":4546,"Ġdiscuss":4547,"Ġprepare":4548,"Ġharbor":4549,"Ġignore":4550,"ĠOw":4551,"Ġcountry":4552,"Ġlanguage":4553,"Ġpulls":4554,"Ġplastic":4555,"Ġsupply":4556,"Ġfloat":4557,"Ġsniffed":4558,"Ġreplace":4559,"Ġmeas":4560,"Ġshovel":4561,"Ġraise":4562,"Ġstrip":4563,"Ġfre":4564,"Ġcared":4565,"Ġsocks":4566,"Ġdoors":4567,"Ġmystery":4568,"Ġlives":4569,"Ġrestore":4570,"Ġsticker":4571,"Ġsudden":4572,"ero":4573,"Ġkinds":4574,"ĠPaul":4575,"Ġslippery":4576,"Ġplayer":4577,"ĠZoomy":4578,"Ġpanic":4579,"Ġhoping":4580,"ĠUnder":4581,"ricane":4582,"iday":4583,"Ġshone":4584,"lex":4585,"ari":4586,"hero":4587,"Ġbeg":4588,"Anna":4589,"Ġsuperhero":4590,"ĠKiki":4591,"Ġdelighted":4592,"Ġgro":4593,"aud":4594,"chan":4595,"Ġchickens":4596,"ĠCharl":4597,"Ġshoulder":4598,"Ġrained":4599,"Ġcolourful":4600,"Ġbreat":4601,"Ġclaw":4602,"Ġsoftly":4603,"rise":4604,"Ġport":4605,"Ġhol":4606,"icer":4607,"Ġholiday":4608,"oof":4609,"Ġbarks":4610,"ason":4611,"Ġthrowing":4612,"Ġplanes":4613,"Ġbend":4614,"Yay":4615,"Ġshakes":4616,"oe":4617,"Ġended":4618,"Ġinfant":4619,"Ġshivering":4620,"Ġkneel":4621,"Ġsunrise":4622,"Yuck":4623,"Ġpushes":4624,"Ġthanks":4625,"Ġfresh":4626,"Ġsuffer":4627,"Ġpoints":4628,"imed":4629,"wards":4630,"Ġtip":4631,"Ġfreeze":4632,"Ġkeeping":4633,"ĠWould":4634,"Ġcopper":4635,"Ġgiggle":4636,"ĠAlex":4637,"Ġsmells":4638,"Ġdear":4639,"Ġenter":4640,"Ġprovide":4641,"ĠEnd":4642,"cast":4643,"chanic":4644,"Ġdishes":4645,"cond":4646,"Ġunh":4647,"Ġapplaud":4648,"Ġheads":4649,"Ġhurricane":4650,"ĠTed":4651,"Ġcherry":4652,"Ġmass":4653,"Ġthumb":4654,"Ġmeowed":4655,"Ġmenu":4656,"Ġsecond":4657,"Ġbrighter":4658,"ince":4659,"Ġsandcast":4660,"Ġmechanic":4661,"Mia":4662,"Ġwre":4663,"ĠDanny":4664,"Ġsprayed":4665,"Ġevent":4666,"Ġletting":4667,"Ġweapon":4668,"Ġlaught":4669,"Ġx":4670,"Ġlaughter":4671,"ĠGrace":4672,"Ġclapping":4673,"Ġfeelings":4674,"ĠOr":4675,"icky":4676,"Ġsplashing":4677,"ement":4678,"acked":4679,"Ġcastles":4680,"ĠJoey":4681,"One":4682,"cer":4683,"Ġscore":4684,"apping":4685,"Ġuniverse":4686,"Ġnavy":4687,"ĠHoppy":4688,"Ġdem":4689,"Ġsticky":4690,"Ġrow":4691,"Ġrooms":4692,"Ġflies":4693,"igi":4694,"Ġunhappy":4695,"Ġgreedy":4696,"ĠSophie":4697,"Ġdare":4698,"Ġalive":4699,"Ġbreaks":4700,"Ġener":4701,"ĠBee":4702,"Ġcourage":4703,"Ġinvit":4704,"Ġrepeat":4705,"Ġdemand":4706,"Ready":4707,"ĠGigi":4708,"Ġtrusted":4709,"Ġsomewhere":4710,"Ġprune":4711,"bles":4712,"Ġwreck":4713,"Ġskill":4714,"Ġexamine":4715,"Ġparts":4716,"ĠHen":4717,"year":4718,"Ġeaten":4719,"erc":4720,"Ġmention":4721,"ĠHelp":4722,"Ġraining":4723,"ĠAnnie":4724,"Ġthrows":4725,"Ġjogged":4726,"quest":4727,"Ġstarting":4728,"Ġrush":4729,"ĠCharlie":4730,"ĠSque":4731,"Ġchirp":4732,"Ġpoison":4733,"Ġpirates":4734,"heart":4735,"Ġvac":4736,"Ġcontent":4737,"ĠSu":4738,"Ġsigh":4739,"Ġflapped":4740,"Ġdrops":4741,"Ġsport":4742,"Qu":4743,"Ġsparkled":4744,"ĠHenry":4745,"Ġgiven":4746,"Ġstreng":4747,"Ġsteel":4748,"Ġbumped":4749,"Ġyawned":4750,"Ġstud":4751,"Ġrequest":4752,"Ġscold":4753,"Ġmyself":4754,"Ġstrength":4755,"Ġshrugged":4756,"Ġcoats":4757,"Ġpunish":4758,"Ġequ":4759,"Ġsnugg":4760,"ĠSm":4761,"Ġuniversity":4762,"Ġpaid":4763,"Ġpigs":4764,"Ġscratch":4765,"Ġtoe":4766,"Ġexerc":4767,"Ġtracks":4768,"Ġupstairs":4769,"Ġprayed":4770,"Ġcrossed":4771,"Ġsqueezed":4772,"Ġflood":4773,"Ġimpressed":4774,"Ġexpect":4775,"Ġbouncing":4776,"Ġrhy":4777,"Ġrabbits":4778,"ges":4779,"Ġbadly":4780,"..":4781,"Ġleather":4782,"Ġwarn":4783,"Ġnews":4784,"Ġtide":4785,"ĠLucky":4786,"Ġminute":4787,"ĠSnowy":4788,"Ġbears":4789,"Ġclaws":4790,"Ġbuzz":4791,"Ġsweetheart":4792,"Ġnation":4793,"ĠSk":4794,"thm":4795,"Ġheat":4796,"Ġhist":4797,"Ġvacation":4798,"Ġstrawberries":4799,"Ġobserve":4800,"Ġexplored":4801,"Ġsettle":4802,"Ġsandcastle":4803,"Ġyawn":4804,"Ġhistory":4805,"ĠFinny":4806,"mare":4807,"ĠSee":4808,"ĠFinn":4809,"ially":4810,"inking":4811,"Ġbelieved":4812,"Ġhorses":4813,"ĠElly":4814,"Ġchecked":4815,"Ġtour":4816,"Ġnetwork":4817,"Ġcheek":4818,"Ġoffer":4819,"Ġeasily":4820,"Ġplaced":4821,"spec":4822,"Ġspots":4823,"Ġsnowball":4824,"ween":4825,"men":4826,"Ġenergy":4827,"Ġimagination":4828,"Ġblueberry":4829,"otten":4830,"Ġbetween":4831,"specially":4832,"izes":4833,"Ġdaisy":4834,"Ġwaving":4835,"reeze":4836,"reat":4837,"ĠHarry":4838,"ĠFox":4839,"ĠTilly":4840,"Ġvroom":4841,"Ġsoak":4842,"Ġsafari":4843,"Ġrhythm":4844,"Ġmassage":4845,"Ġstomach":4846,"Ġbaking":4847,"quake":4848,"Ġnightmare":4849,"Ġinsisted":4850,"Ġblowing":4851,"Ġentered":4852,"Ġstair":4853,"Ġpalm":4854,"Ġbeauty":4855,"Ġtwisted":4856,"Ġbother":4857,"Ġwriting":4858,"Ġscoop":4859,"Ġprunes":4860,"Ġbrain":4861,"Ġing":4862,"ĠPenny":4863,"ipment":4864,"Ġpoppy":4865,"Ġhills":4866,"noon":4867,"Ġafternoon":4868,"Ġespecially":4869,"Ġequipment":4870,"hest":4871,"Ġsir":4872,"Ġpad":4873,"Ġingred":4874,"Ġcalls":4875,"Ġingredient":4876,"Ġearthquake":4877,"Ġignored":4878,"Ġburned":4879,"Ġnobody":4880,"mble":4881,"Ġsty":4882,"apa":4883,"Ġsew":4884,"Ġtug":4885,"isty":4886,"Ġhearts":4887,"xygen":4888,"Ġlear":4889,"Ġlearnt":4890,"Ġlemonade":4891,"Sh":4892,"Ġincrease":4893,"ĠMaria":4894,"Ġgaz":4895,"Ġbackpack":4896,"Ġmailman":4897,"Ġwhistled":4898,"Ġpedal":4899,"Ġshopkeeper":4900,"ffic":4901,"Ġpermit":4902,"Ġtremble":4903,"ĠMill":4904,"Ġyucky":4905,"anges":4906,"Ġmoves":4907,"ĠZara":4908,"Ġintroduce":4909,"Ġlemons":4910,"Ġcrash":4911,"Ġbeans":4912,"ĠMag":4913,"Ġfloated":4914,"edn":4915,"ednesday":4916,"ittens":4917,"ĠWednesday":4918,"Ġplanned":4919,"ĠCoco":4920,"Welcome":4921,"ĠRos":4922,"Ġstrike":4923,"Ġtraffic":4924,"Lucy":4925,"Ġinclude":4926,"Ġslap":4927,"Ġracing":4928,"resses":4929,"ĠWhenever":4930,"Ġwisdom":4931,"Ġpur":4932,"Ġwags":4933,"laimed":4934,"Ġluck":4935,"Ġfollowing":4936,"Ġprice":4937,"ecting":4938,"Ġmama":4939,"Ġpitch":4940,"Ġbelow":4941,"ĠHave":4942,"ĠSandy":4943,"ĠPip":4944,"ĠSqueaky":4945,"Ġweight":4946,"Ġexclaimed":4947,"house":4948,"ĠOwl":4949,"uct":4950,"Ġburied":4951,"Ġcomf":4952,"Ġfollows":4953,"Ġrecognize":4954,"Ġingredients":4955,"ĠFroggy":4956,"ĠMittens":4957,"ĠDog":4958,"Ġfurt":4959,"tain":4960,"Ġcandles":4961,"ĠBounce":4962,"Ġmarbles":4963,"riage":4964,"unday":4965,"emember":4966,"eration":4967,"ĠSunday":4968,"Ġapart":4969,"Ġgrowled":4970,"ĠIs":4971,"ĠWho":4972,"ores":4973,"Ġconf":4974,"Ġhopes":4975,"Ġteaching":4976,"Ġfolded":4977,"Ġclosely":4978,"Ġheel":4979,"Ġencourage":4980,"ĠKate":4981,"Ġzigzag":4982,"Ġpulling":4983,"Ġdigg":4984,"Ġbouncy":4985,"ĠMillie":4986,"ippy":4987,"Ġfurther":4988,"Ġchewed":4989,"Ġdigging":4990,"Ġwinning":4991,"nce":4992,"Woof":4993,"Ġdresses":4994,"Ġimage":4995,"rec":4996,"cery":4997,"Ġshouting":4998,"ĠRock":4999,"Ġgrocery":5000,"Ġtwisty":5001,"Sara":5002,"Ġpeanuts":5003,"Ġpuzzles":5004,"ĠJames":5005,"bbing":5006,"look":5007,"Ġscrat":5008,"Ġchores":5009,"Ġwhisper":5010,"Ġspike":5011,"Ġcape":5012,"Ġsnail":5013,"Ġacorns":5014,"Ġworms":5015,"hood":5016,"ĠTw":5017,"Ġdeeper":5018,"Ġurge":5019,"ĠPinky":5020,"ifi":5021,"ĠRo":5022,"ĠTony":5023,"ĠBluey":5024,"Ġplanted":5025,"Ġattention":5026,"ecture":5027,"Ġexercise":5028,"ĠBaby":5029,"ĠPapa":5030,"Ġexper":5031,"Ġcub":5032,"Ġoperation":5033,"Ġunderground":5034,"Ġhon":5035,"Ġagre":5036,"Ġquite":5037,"Ġcreatures":5038,"Ġsimp":5039,"Ġstruggle":5040,"oral":5041,"ddy":5042,"Ġblood":5043,"Ġlecture":5044,"ĠFifi":5045,"Ġwashing":5046,"ĠMay":5047,"Ġhurting":5048,"Ġgifts":5049,"Ġvanished":5050,"ĠSharing":5051,"Ġdressed":5052,"Ġinvitation":5053,"Ġsolved":5054,"Ġlicks":5055,"Ġsnuggled":5056,"ĠRuby":5057,"Ġble":5058,"Ġmarriage":5059,"Ġquietly":5060,"gie":5061,"To":5062,"Ġwarning":5063,"Ġjazz":5064,"Ġbreathe":5065,"reci":5066,"Ġelephants":5067,"ĠTu":5068,"Ġsizes":5069,"Bob":5070,"Ġdried":5071,"Ġfallen":5072,"Ġlandscape":5073,"ories":5074,"Ġsprink":5075,"Ġneighbour":5076,"Ġmice":5077,"Ġappreci":5078,"ĠTuesday":5079,"ĠâĢĵ":5080,"Ġeagerly":5081,"Ġsailing":5082,"ĠGood":5083,"Ġpaused":5084,"ips":5085,"Ġcounter":5086,"And":5087,"Ġworth":5088,"looking":5089,"ĠLiz":5090,"ĠFirst":5091,"Ġoxygen":5092,"Ġrelease":5093,"Ġshined":5094,"pted":5095,"Ġreaches":5096,"Ġbalan":5097,"isses":5098,"Ġoh":5099,"Ġkisses":5100,"Ġstyle":5101,"Ġbricks":5102,"Ġplays":5103,"Ġglo":5104,"Ġideas":5105,"sed":5106,"Ġinst":5107,"ĠSte":5108,"Ġwob":5109,"Ġfireworks":5110,"Will":5111,"ĠKat":5112,"ĠEverything":5113,"iggly":5114,"ucked":5115,"Ġseeing":5116,"Ġflap":5117,"Ġaccepted":5118,"Ġblink":5119,"mm":5120,"Ġtremb":5121,"Ġmuddy":5122,"Ġmemory":5123,"Ġmarried":5124,"Ġtomatoes":5125,"Ġexit":5126,"These":5127,"ops":5128,"Ġwagging":5129,"Ġfash":5130,"ĠJul":5131,"Ġwandered":5132,"unately":5133,"ipping":5134,"right":5135,"Ġgloves":5136,"ĠEach":5137,"Ġcaptain":5138,"Ġpillows":5139,"Ġreceive":5140,"Ġresp":5141,"raged":5142,"Ġduring":5143,"Not":5144,"etch":5145,"Ġweb":5146,"Ġpetals":5147,"Ġwatered":5148,"Because":5149,"ived":5150,"Ġmanage":5151,"ĠRosie":5152,"Ġbrings":5153,"Ġpinched":5154,"Ġcakes":5155,"Ġvanish":5156,"Ġfashion":5157,"Ġprinter":5158,"Ġdestroyed":5159,"ĠAb":5160,"Ġtreasures":5161,"Ġallow":5162,"ĠClara":5163,"ups":5164,"Ġhadn":5165,"Ġworse":5166,"Ġvel":5167,"Ġhits":5168,"Ġbur":5169,"do":5170,"xu":5171,"Ġvelvet":5172,"Ġappear":5173,"Ġdisagree":5174,"Ġcatching":5175,"Ġscattered":5176,"Ġmemories":5177,"Ġsorts":5178,"Ġhers":5179,"Ġscolded":5180,"Ġpears":5181,"Ġoranges":5182,"Ġsigns":5183,"Ġbones":5184,"Ġrang":5185,"Ġsnapped":5186,"Ġsits":5187,"Ġseats":5188,"ĠUncle":5189,"uxu":5190,"Ġgazed":5191,"Ġraised":5192,"ĠSpark":5193,"ĠWiggly":5194,"ĠPr":5195,"Ġsi":5196,"ĠGod":5197,"Ġzipped":5198,"Ġpies":5199,"Ġprints":5200,"Ġshot":5201,"Ġsliding":5202,"Ġfro":5203,"Ġeasier":5204,"ssible":5205,"Ġskills":5206,"urprise":5207,"Ġclimbs":5208,"Ġtwirled":5209,"Ġblankets":5210,"Ġforgotten":5211,"Ġbaked":5212,"ester":5213,"Ġdifference":5214,"esterday":5215,"Ġluxu":5216,"orted":5217,"Ġgolden":5218,"ccer":5219,"Yum":5220,"ising":5221,"Ġkitty":5222,"Ġcutting":5223,"Ġseason":5224,"Ġnowhere":5225,"Ġcrow":5226,"ĠWally":5227,"Ġsoccer":5228,"Ġdared":5229,"ah":5230,"Ġbites":5231,"Ġlung":5232,"Ġcelebrated":5233,"choo":5234,"chie":5235,"Ġstraight":5236,"Ġunlocked":5237,"sters":5238,"ĠMe":5239,"ĠAn":5240,"Ġsorting":5241,"Ġcollected":5242,"Ġbleed":5243,"ĠMoral":5244,"aped":5245,"ding":5246,"Ġwelcomed":5247,"Ġvisited":5248,"Ġspoons":5249,"ĠOut":5250,"Ġours":5251,"Ġstitch":5252,"ĠMaggie":5253,"Ġjogging":5254,"ĠTuna":5255,"medi":5256,"Ġemer":5257,"mediately":5258,"Ġisn":5259,"Ġtong":5260,"Ġtrave":5261,"Ġwinner":5262,"umble":5263,"Surprise":5264,"Ġsince":5265,"Ġruin":5266,"Ġprett":5267,"Ok":5268,"Ġattached":5269,"ĠKing":5270,"Ġweeping":5271,"Ġmarching":5272,"Ġluxury":5273,"Ġsimple":5274,"Ġshouldn":5275,"Ġguessed":5276,"Ġzero":5277,"Ġcreated":5278,"Ġstuffed":5279,"Ġpets":5280,"ĠSmith":5281,"ction":5282,"Ġwaist":5283,"Ġfamil":5284,"Ġurged":5285,"Ġbowed":5286,"Ġselling":5287,"ĠGr":5288,"Ġfloating":5289,"ĠSuzy":5290,"Ġbye":5291,"Ġvict":5292,"Ġkingdom":5293,"Ġolives":5294,"Ġkicking":5295,"Ġpunished":5296,"sit":5297,"ĠQu":5298,"ĠBo":5299,"Ġtoes":5300,"Ġgrant":5301,"Ġmuscles":5302,"Ġjewels":5303,"Ġbeds":5304,"Ġmelted":5305,"Ġslice":5306,"Goodbye":5307,"Ġgrin":5308,"Ġunderstanding":5309,"rr":5310,"Ġcollection":5311,"Ġtore":5312,"Ġmeasured":5313,"Ġcras":5314,"aker":5315,"ĠBoth":5316,"ĠSlow":5317,"iers":5318,"Ġtrapped":5319,"omeday":5320,"ĠDr":5321,"Ġlined":5322,"'ve":5323,"Ġacted":5324,"fortunately":5325,"Ġencouraged":5326,"va":5327,"Ġreceived":5328,"Ġwaffles":5329,"ĠChe":5330,"Ġwest":5331,"Ġmeow":5332,"ents":5333,"Ġpatterns":5334,"ĠDin":5335,"ĠBoo":5336,"Ġbrus":5337,"Ġmouths":5338,"kins":5339,"Ġbang":5340,"ring":5341,"Meow":5342,"Ġpeaches":5343,"Ġbreeze":5344,"aded":5345,"une":5346,"Ġprinted":5347,"Ġsoldiers":5348,"Ġsomeday":5349,"Ġpotatoes":5350,"Ġpupil":5351,"umes":5352,"Ġresult":5353,"Ġdrinks":5354,"Ġshed":5355,"Ġexperience":5356,"Ġpresents":5357,"Ġfiref":5358,"Ġsurround":5359,"Ġnone":5360,"Ġvoices":5361,"osed":5362,"Ġdrinking":5363,"ishing":5364,"Ġrelaxed":5365,"Ġvictory":5366,"cus":5367,"Ġbreaking":5368,"Ġpaints":5369,"Ġhurried":5370,"Ġtwink":5371,"ission":5372,"Ġtongue":5373,"eep":5374,"Ġcostumes":5375,"Ġflat":5376,"Ġmentioned":5377,"Ġbegged":5378,"Ġteasing":5379,"Ġwhistling":5380,"Ġfetch":5381,"Ġpermission":5382,"Ġsip":5383,"Ġdisagreed":5384,"ĠThese":5385,"Ġpearl":5386,"Ġsix":5387,"ĠToto":5388,"Amy":5389,"akes":5390,"Ġstro":5391,"vest":5392,"ĠRocky":5393,"Ġesc":5394,"Ġappro":5395,"Ġskipping":5396,"Ġfishing":5397,"Ġhighest":5398,"Ġpra":5399,"Ġwatches":5400,"Ġsorted":5401,"ĠChicky":5402,"Ġringing":5403,"ship":5404,"Ġtonight":5405,"Ġopin":5406,"Ġlets":5407,"icing":5408,"Next":5409,"Ġperfectly":5410,"Ġshadows":5411,"Ġimmediately":5412,"Ġherbs":5413,"Ġwarmth":5414,"Ġspit":5415,"Ġremained":5416,"ĠIts":5417,"ther":5418,"walk":5419,"ĠPepper":5420,"irring":5421,"Ġsneak":5422,"Ġlips":5423,"Ġkneeled":5424,"ĠMilly":5425,"Ġcontest":5426,"utter":5427,"Ġcartoons":5428,"Mr":5429,"Ġsidewalk":5430,"Ġcolours":5431,"Ġstamps":5432,"ĠFollow":5433,"Ġago":5434,"Ġeast":5435,"Ġheaded":5436,"oved":5437,"\",":5438,"Ġstrang":5439,"Ha":5440,"Ġfed":5441,"Ġladyb":5442,"Ġsupposed":5443,"ĠSky":5444,"Ġlick":5445,"Ġroots":5446,"Ġcrunch":5447,"ĠHop":5448,"ĠDino":5449,"Ġmixing":5450,"Ġworks":5451,"Ġdecorations":5452,"Ġknown":5453,"Ġmelting":5454,"Ġemergen":5455,"Ġrested":5456,"Ġlines":5457,"Ġlily":5458,"Ġinstr":5459,"Ġlaid":5460,"Ġcones":5461,"Ġsucceeded":5462,"Ġwiggle":5463,"ety":5464,"sing":5465,"Ġshock":5466,"Ġsetting":5467,"ĠFrank":5468,"Ġstudied":5469,"Ġstrangers":5470,"ĠZigzag":5471,"Ġtwigs":5472,"Really":5473,"Ġbrid":5474,"Ġtheirs":5475,"Ġgirls":5476,"boo":5477,"!\",":5478,"Ġscreams":5479,"Ġlands":5480,"Ġordered":5481,"ĠHowever":5482,"Ġstirring":5483,"Ġmoments":5484,"Ġfields":5485,"Ġalright":5486,"Ġstealing":5487,"ded":5488,"Ġrul":5489,"Ġbravely":5490,"avid":5491,"Ġmister":5492,"!'":5493,"Ġinvest":5494,"Ġscratched":5495,"Ġplaytime":5496,"Ġripped":5497,"Ġinvestig":5498,"Ġtucked":5499,"Ġresting":5500,"Ġburning":5501,"ishes":5502,"ĠMo":5503,"Ġbridges":5504,"Ġtext":5505,"ĠAm":5506,"Ġofficer":5507,"please":5508,"ĠSteve":5509,"abies":5510,"ĠDavid":5511,"Ġsettled":5512,"Ġachie":5513,"Ġmatched":5514,"ĠSomeone":5515,"Ġtexture":5516,"Ġturning":5517,"Ġwaits":5518,"ored":5519,"Ġtrembling":5520,"isten":5521,"Ġnails":5522,"Ġmuffins":5523,"ĠUnfortunately":5524,"ids":5525,"Ġescaped":5526,"Ġpiles":5527,"Ġinvestigate":5528,"Ġbroom":5529,"osity":5530,"Ġladybug":5531,"Ġsore":5532,"ĠHappy":5533,"Ġadmir":5534,"Ġappreciate":5535,"ĠLizzy":5536,"Ġthreat":5537,"Ġbabies":5538,"Ġsilence":5539,"Ġsisters":5540,"Ġarea":5541,"Ġemergency":5542,"ides":5543,"Ġdads":5544,"ĠSlowly":5545,"ĠFrog":5546,"Ġanswers":5547,"Ġpupp":5548,"Little":5549,"Ġkeys":5550,"ĠHope":5551,"Ġchewing":5552,"Ġslapped":5553,"Ġwiz":5554,"Ġimportance":5555,"Ġserved":5556,"Ġsafety":5557,"ĠBug":5558,"izing":5559,"ĠRabbit":5560,"Would":5561,"ĠKatie":5562,"Ġsparkle":5563,"Ġtouching":5564,"Ġsoared":5565,"igail":5566,"Ġsings":5567,"Ġhen":5568,"allen":5569,"bers":5570,"antly":5571,"Ġkeeps":5572,"Ġamazement":5573,"Ġchallen":5574,"ĠEl":5575,"Ġhesit":5576,"Ġtwin":5577,"Ġrevealed":5578,"anna":5579,"achel":5580,"Ġdire":5581,"Ġitem":5582,"Ġsoaked":5583,"zing":5584,"Ġwrit":5585,"ĠAbigail":5586,"Ġfoods":5587,"Ġdinosaurs":5588,"Ġrides":5589,"ĠRachel":5590,"Ġrecorded":5591,"Ġtickle":5592,"Ġinch":5593,"Ġwizard":5594,"Ġvet":5595,"Ġtrips":5596,"Ġglowed":5597,"ĠSomething":5598,"ĠMat":5599,"ĠNot":5600,"Mmm":5601,"Ġhi":5602,"Ġbeamed":5603,"Ġquack":5604,"Ġcurled":5605,"Ġhated":5606,"Ġwink":5607,"Ġshopping":5608,"Ġeats":5609,"ĠBeep":5610,"Ġpraised":5611,"Ġwooden":5612,"Ġbringing":5613,"Ġmittens":5614,"Ġstudying":5615,"Ġguy":5616,"Happy":5617,"int":5618,"Ġbrushes":5619,"ĠAunt":5620,"Ġspaceship":5621,"Ġgust":5622,"Ġcrawling":5623,"ĠJoy":5624,"Ġruler":5625,"Ġflav":5626,"Ġdownstairs":5627,"ĠZoe":5628,"Ġshooting":5629,"Ġnapping":5630,"Ġtastes":5631,"ĠStar":5632,"Ġmarks":5633,"Ġsprinkles":5634,"Ġcuddled":5635,"Ġdot":5636,"hello":5637,"Ġfut":5638,"ales":5639,"aved":5640,"Ġfuture":5641,"Ġmonsters":5642,"Ġcollecting":5643,"Ġmeasuring":5644,"'.":5645,"Ġfamilies":5646,"Kitty":5647,"Ġthrill":5648,"Ġoat":5649,"Ġapproached":5650,"act":5651,"Ġcrunchy":5652,"Ġremem":5653,"Ġbleeding":5654,"Ġremembers":5655,"ĠHo":5656,"Ġnicer":5657,"Ġbeat":5658,"ĠJess":5659,"ibb":5660,"Ġsneaky":5661,"Ġdisturbed":5662,"Ġleader":5663,"ĠBeh":5664,"Ġscaring":5665,"ĠRay":5666,"Ġpeel":5667,"Ġfiremen":5668,"ĠDid":5669,"Ġneighborhood":5670,"Ġgrey":5671,"Boo":5672,"Ġmotion":5673,"Ġnoon":5674,"Ġpossible":5675,"Ġapologized":5676,"ĠBehind":5677,"Or":5678,"Ġweighed":5679,"ues":5680,"ĠSad":5681,"Ġtickets":5682,"Ġnaps":5683,"When":5684,"Ġloose":5685,"Jo":5686,"Ġpride":5687,"Ġyouth":5688,"ĠSqu":5689,"Ġswims":5690,"ped":5691,"Ġstrings":5692,"Ġrecognized":5693,"Ġsiren":5694,"Ġpoking":5695,"fied":5696,"She":5697,"cious":5698,"ha":5699,"elvet":5700,"Ġtricked":5701,"Ġwonders":5702,"Ġgained":5703,"Ġwanting":5704,"Ġcrashed":5705,"Ġobe":5706,"Ġseesaw":5707,"Ġworker":5708,"unnies":5709,"ĠJam":5710,"oming":5711,"Ġdraws":5712,"Ġscooped":5713,".'":5714,"Ġzooming":5715,"Ġopinion":5716,"Ġyelling":5717,"ĠVelvet":5718,"Ġprepared":5719,"ĠPippa":5720,"Ġgrinned":5721,"Ġawe":5722,"ĠFriend":5723,"Ġdoggy":5724,"Ġpoems":5725,"Ġacting":5726,"Ġhappiest":5727,"ĠAlways":5728,"Ġchef":5729,"Ġsneaked":5730,"Ġrespons":5731,"Ġeff":5732,"ĠCar":5733,"Ġbunnies":5734,"Ġowned":5735,"ĠJe":5736,"Ġanytime":5737,"Ġstruck":5738,"Ġpedals":5739,"ena":5740,"Ġknelt":5741,"oys":5742,"ĠNan":5743,"Ġsecrets":5744,"Ġpause":5745,"Ġdecorated":5746,"Ġhorns":5747,"Ġagreement":5748,"ĠRobby":5749,"ided":5750,"Ġfrost":5751,"ĠDuring":5752,"Ġtallest":5753,"Ġobey":5754,"ĠJu":5755,"ĠChr":5756,"ogo":5757,"ĠStop":5758,"ĠBy":5759,"Remember":5760,"Ġdecides":5761,"Have":5762,"ĠJan":5763,"Ġbehaved":5764,"Ġtugged":5765,"Ġgran":5766,"Ġsides":5767,"Ġwoof":5768,"Ġslim":5769,"zen":5770,"Ġgoodnight":5771,"Ġkeeper":5772,"Ġsparkling":5773,"Ġchirped":5774,"Ġprecious":5775,"mother":5776,"ien":5777,"lier":5778,"Ġrepeated":5779,"Ġclaps":5780,"indy":5781,"Ġcontain":5782,"affes":5783,"Ġsnowballs":5784,"rs":5785,"Ġourselves":5786,"ĠStitch":5787,"ĠBree":5788,"allow":5789,"Ġgiraffes":5790,"Ġbalancing":5791,"Ġkindly":5792,"ĠLike":5793,"Ġspending":5794,"omas":5795,"Ġwrites":5796,"ays":5797,"ppers":5798,"Ġprop":5799,"ĠBouncy":5800,"Ġhissed":5801,"ĠAd":5802,"Ġfrozen":5803,"Ġfrosting":5804,"Ġeffort":5805,"ĠSpl":5806,"Ġbuzzing":5807,"Ġstruggled":5808,"ud":5809,"Sally":5810,"Ġadmiring":5811,"Ġrele":5812,"Ġsweeties":5813,"Ġslimy":5814,"Ġbrushed":5815,"ĠGogo":5816,"ĠBirdie":5817,"Ġbloomed":5818,"Ġpolished":5819,"ĠDare":5820,"Al":5821,"ĠThomas":5822,"Ġcomfy":5823,"Ġboo":5824,"Ġstaying":5825,"ĠGreen":5826,"Ġrubbing":5827,"Ġrocking":5828,"Ġpockets":5829,"Ġthrilled":5830,"Ġbeside":5831,"ĠAva":5832,"Ġcomple":5833,"Ġeight":5834,"isdom":5835,"urry":5836,"Ġmachines":5837,"iggy":5838,"Ġearlier":5839,"Ġyesterday":5840,"Ġseems":5841,"Ġrust":5842,"ĠJulie":5843,"ĠOlly":5844,"ĠKeep":5845,"Ġtraveled":5846,"Ġfolding":5847,"Ġboom":5848,"Ġcracked":5849,"ities":5850,"Ġhugging":5851,"Ah":5852,"Ġradishes":5853,"Ġloving":5854,"Ġopening":5855,"Ġcircus":5856,"Ġcuriosity":5857,"Ġsurrounded":5858,"Ġspraying":5859,"Ġdemanded":5860,"Ġpaintings":5861,"Ġremoved":5862,"Ġgaze":5863,"oh":5864,"Ġhonk":5865,"Ġpebbles":5866,"Ġhardly":5867,"Ġzookeeper":5868,"Ġcatches":5869,"edding":5870,"Ġsting":5871,"Ġstripes":5872,"Ġpowers":5873,"Ġloaded":5874,"Daddy":5875,"Ġpots":5876,"Ġsplashes":5877,"Ġpetted":5878,"Ġmatching":5879,"Ġtoss":5880,"Ġbelly":5881,"Ġstare":5882,"ĠBeth":5883,"Ġwhatever":5884,"Ġapologize":5885,"Ġrocked":5886,"Ġcomforted":5887,"ĠEveryday":5888,"Ġdecision":5889,"Ġribbons":5890,"ern":5891,"Yummy":5892,"Ġstruggling":5893,"Ch":5894,"Ġexpected":5895,"Ġsteep":5896,"ĠJamie":5897,"Ġprotected":5898,"Ġneighbors":5899,"Ġsmiley":5900,"Ġchases":5901,"ĠLou":5902,"Ġgranted":5903,"Ġcrumb":5904,"ĠWater":5905,"Ġpurred":5906,"Ġdiving":5907,"ĠAbby":5908,"Ġsadness":5909,"Ġorganizing":5910,"Ġeagle":5911,"Ġheroes":5912,"Ġdipped":5913,"ĠSpring":5914,"Ġsunlight":5915,"Ġlied":5916,"Ġpastels":5917,"ĠNina":5918,"ĠBecause":5919,"Ġroads":5920,"Ġsafer":5921,"Ġscru":5922,"Ġargued":5923,"Somet":5924,"Ġgoals":5925,"Ġdiscovery":5926,"ĠSure":5927,"Ġpeered":5928,"Ġvillag":5929,"Ġdeser":5930,"Gra":5931,"ĠSplash":5932,"loe":5933,"use":5934,"Ġtim":5935,"Ġdragons":5936,"ĠMir":5937,"ĠLu":5938,"Ġbuildings":5939,"Ġbuckets":5940,"Ġparties":5941,"Ġbeard":5942,"ĠWisdom":5943,"Ġwedding":5944,"Ġflutter":5945,"Ġplanets":5946,"Ġann":5947,"Ġpolishing":5948,"Ġfasc":5949,"ĠFor":5950,"Ġreleased":5951,"ĠWatch":5952,"Ġcrabs":5953,"Ġtails":5954,"Ġsausages":5955,"ĠCla":5956,"Ġargu":5957,"Bird":5958,"Ġcontro":5959,"Ġbottles":5960,"Ġwiggled":5961,"Ġteased":5962,"ĠZero":5963,"Thanks":5964,"Ġarguing":5965,"Ġsled":5966,"Ġdragged":5967,"Ġpadd":5968,"ĠChloe":5969,"Ġroaring":5970,"ĠJosh":5971,"Ġclearing":5972,"Ġshirts":5973,"Ġmovies":5974,"Ġgathering":5975,"Ġairpl":5976,"Ġwid":5977,"joyed":5978,"ĠRemember":5979,"Ġteaches":5980,"Ġspiders":5981,"Ġlimes":5982,"Ġoverjoyed":5983,"Ġactually":5984,"ĠHippy":5985,"Ġsighs":5986,"Ġcontinue":5987,"anny":5988,"Ġcuddle":5989,"Ġsoaring":5990,"Ġsmallest":5991,"ĠOl":5992,"ĠKay":5993,"Ġdrives":5994,"Ġrip":5995,"Ġsparkles":5996,"Ġsitu":5997,"Ġcubes":5998,"Ġrefres":5999,"Ġtalent":6000,"Ġchallenge":6001,"Ġgrandmother":6002,"umm":6003,"ĠMoo":6004,"Ġpouring":6005,"Ġpretends":6006,"Ġfascin":6007,"ĠHanna":6008,"Ġcuts":6009,"Ġbank":6010,"Ġpeppers":6011,"Ġquarreling":6012,"Ġmane":6013,"ĠBeing":6014,"Ġshivered":6015,"ten":6016,"ĠX":6017,"Ġdusty":6018,"ib":6019,"ley":6020,"Ġwondering":6021,"Ġvillagers":6022,"Ġstretching":6023,"njoy":6024,"Ġweeks":6025,"Ġwherever":6026,"Ġdarker":6027,"jam":6028,"sses":6029,"Ġrings":6030,"Ġonwards":6031,"Ġunited":6032,"ĠBop":6033,"Achoo":6034,"John":6035,"Ġbead":6036,"Ġprettiest":6037,"Ġcaut":6038,"lowers":6039,"Ġrealize":6040,"Ġcompany":6041,"Ġpenguins":6042,"ĠCatty":6043,"Ġbedtime":6044,"Ġcompleted":6045,"ĠLeave":6046,"âĢĿ.":6047,"Ġknights":6048,"Ġcontrol":6049,"Ġflags":6050,"Ġplayroom":6051,"Ġactions":6052,"ĠPrin":6053,"Ġlearns":6054,"Ġgotten":6055,"Ġpatience":6056,"inda":6057,"Ġshrug":6058,"ĠFish":6059,"Ġkites":6060,"ĠTwo":6061,"ĠLena":6062,"Ġresponsible":6063,"Ġfears":6064,"Ġdestination":6065,"Ġwires":6066,"Ġreply":6067,"Ġdam":6068,"Ġwrist":6069,"ĠAnne":6070,"ĠChew":6071,"aws":6072,"ĠEarth":6073,"Ġpacking":6074,"Ġfault":6075,"Ġmountains":6076,"Ġapplauded":6077,"Ġma":6078,"Ġscrubbed":6079,"Ġcrept":6080,"Uh":6081,"Ġsatis":6082,"Fl":6083,"ĠCra":6084,"Mama":6085,"ĠAdam":6086,"Ġthird":6087,"Ġphot":6088,"Ġpencils":6089,"Ġwins":6090,"Ġsticking":6091,"Ġbaker":6092,"Ġvisiting":6093,"Ġwound":6094,"Ġpeas":6095,"Ġuses":6096,"Ġreminder":6097,"ashed":6098,"ĠPut":6099,"Ġjoking":6100,"Ġawake":6101,"Ġinstruct":6102,"Ġstaring":6103,"Ġhealed":6104,"ĠBlink":6105,"Ġhitting":6106,"ĠFriends":6107,"Ġscreaming":6108,"Ġbegin":6109,"ĠLuck":6110,"ĠBrownie":6111,"icorn":6112,"ĠMad":6113,"Ġhelmets":6114,"enty":6115,"Ġunicorn":6116,"ler":6117,"seek":6118,"Ġtowels":6119,"ĠLuckily":6120,"Mum":6121,"ĠHannah":6122,"Ġchips":6123,"ica":6124,"Ġcreation":6125,"Ġwasted":6126,"Sometimes":6127,"Just":6128,"bie":6129,"Ġmasks":6130,"Ġforgi":6131,"Ġitems":6132,"ĠSun":6133,"Ġfirefight":6134,"Ġoutdo":6135,"Ġlollipops":6136,"Ġheav":6137,"ĠMira":6138,"Watch":6139,"Ġguns":6140,"Ġdied":6141,"Ġseas":6142,"Ġglitter":6143,"ĠPrincess":6144,"ĠMouse":6145,"ĠMon":6146,"uddles":6147,"Ġarrive":6148,"ĠClaire":6149,"Silly":6150,"Ġweren":6151,"Ġstole":6152,"Ġscales":6153,"die":6154,"Ġperched":6155,"Ġaccom":6156,"ĠLove":6157,"Ġlogs":6158,"Ġachieve":6159,"Ġpracticing":6160,"ining":6161,"Ġwhose":6162,"Ġpumpkins":6163,"Ġinstructions":6164,"Ġswoop":6165,"Ġbatteries":6166,"Ġcandies":6167,"Ġagrees":6168,"Ġproject":6169,"Ġsnakes":6170,"Ġchirping":6171,"ĠJilly":6172,"Ġshelves":6173,"Ġprotecting":6174,"ĠHoot":6175,"Ġexact":6176,"Ġparked":6177,"Stay":6178,"Ġpatiently":6179,"Ġactiv":6180,"ĠAlly":6181,"Ġshoulders":6182,"Ġvideos":6183,"Ġblows":6184,"Ġpromises":6185,"go":6186,"Ġdent":6187,"ĠMatt":6188,"ners":6189,"uest":6190,"Ġexamined":6191,"Ġairplane":6192,"jamas":6193,"ĠFoxy":6194,"Ġroses":6195,"hee":6196,"Ġaccompl":6197,"Ġtasks":6198,"ĠSquirrel":6199,"ĠSusan":6200,"Ġbeads":6201,"Ġbowls":6202,"Ġcrumbs":6203,"zes":6204,"ĠDot":6205,"ĠWhist":6206,"Ġlistens":6207,"Fluffy":6208,"Ġbunch":6209,"Ġdolphins":6210,"Ġcough":6211,"Ġguest":6212,"Today":6213,"Ex":6214,"ĠCuddles":6215,"cakes":6216,"Ġrequested":6217,"Ġremote":6218,"Ġimproved":6219,"ĠBye":6220,"anta":6221,"Ġbrand":6222,"Ġreaching":6223,"Ġalien":6224,"irm":6225,"Ġcopy":6226,"ĠQuick":6227,"Ġcheering":6228,"Mummy":6229,"ĠJeff":6230,"Ġphotos":6231,"Ġcans":6232,"Ġbene":6233,"Ġtimer":6234,"Ġreplaced":6235,"Ġworkers":6236,"Ġstern":6237,"ĠEnjoy":6238,"Ġadult":6239,"Bad":6240,"Ġneither":6241,"aster":6242,"Ġpassing":6243,"Ġmisses":6244,"Ġpuppet":6245,"Ġcurtains":6246,"Ġconfl":6247,"Ġrainbows":6248,"Ġtwirl":6249,"Ġrubs":6250,"Ġrolls":6251,"uctantly":6252,"ĠLuke":6253,"ĠJessie":6254,"Ġpatted":6255,"Ġconflict":6256,"ilo":6257,"Ġpajamas":6258,"Ġoutdoors":6259,"esome":6260,"dies":6261,"Ġcomplaining":6262,"ĠDizzy":6263,"Ġcloses":6264,"Ġbeneath":6265,"Ġlap":6266,"Ġdrums":6267,"Run":6268,"Ġtune":6269,"ĠSanta":6270,"Ro":6271,"Ġfilling":6272,"ĠSorry":6273,"angled":6274,"Ġrefuse":6275,"Ġsweat":6276,"Ġfaced":6277,"...":6278,"Ġseven":6279,"Ġbalanced":6280,"Ġ1":6281,"Ġrescued":6282,"bl":6283,"Ġquacked":6284,"neath":6285,"ĠDays":6286,"ĠOur":6287,"Ġawesome":6288,"ĠYes":6289,"Ġmission":6290,"Ġguys":6291,"Ġcautious":6292,"Ġcause":6293,"Ġvent":6294,"Ġobserved":6295,"Cat":6296,"Ġintroduc":6297,"Ġpastries":6298,"nie":6299,"Ġdoctors":6300,"Ġexactly":6301,"Ġrule":6302,"ĠHenny":6303,"Ġbecoming":6304,"Ġmes":6305,"Ġpoliceman":6306,"lay":6307,"Ġrockets":6308,"uly":6309,"you":6310,"Ġfairies":6311,"Ġpout":6312,"ĠLinda":6313,"ĠJac":6314,"Ġinsist":6315,"Ġblooming":6316,"Ġtractor":6317,"Ġfarther":6318,"Tommy":6319,"avi":6320,"Oops":6321,"Ġdesert":6322,"Ġremembering":6323,"Ġincluded":6324,"Ġcurly":6325,"Ġteamwork":6326,"zie":6327,"Great":6328,"Ġfascinated":6329,"Ġslam":6330,"Ġwobbled":6331,"Ġtruly":6332,"Ġhelpers":6333,"Fine":6334,"Ġsights":6335,"Ġpaddle":6336,"Ġfirm":6337,"Ġstumble":6338,"Ġcaused":6339,"Ġprayer":6340,"ĠJenna":6341,"Then":6342,"Ġspong":6343,"Ġrecording":6344,"kelly":6345,"eah":6346,"Ġstarfish":6347,"Ġtraded":6348,"ĠSc":6349,"Ġsupplies":6350,"Ġthro":6351,"Ġpointy":6352,"Ġinviting":6353,"Ġsituation":6354,"gers":6355,"Ġeveryday":6356,"Ġneighbourhood":6357,"Ġornaments":6358,"ĠAnt":6359,"ĠWhistle":6360,"inkle":6361,"Ġvalued":6362,"Ġadding":6363,"ais":6364,"Ġreluctantly":6365,"ĠRover":6366,"Ġdots":6367,"Ġstays":6368,"Ġbare":6369,"Ġtables":6370,"Ġprettier":6371,"ĠMix":6372,"ĠSkelly":6373,"ĠJon":6374,"Ġsnowmen":6375,"ĠJacob":6376,"Ġsteady":6377,"Ġminerals":6378,"ĠGina":6379,"araway":6380,"ĠMilo":6381,"Ġthorn":6382,"ĠGet":6383,"Ġast":6384,"ĠWelcome":6385,"Ġfaraway":6386,"Ġglasses":6387,"ĠDuck":6388,"ĠPo":6389,"ĠĠĊ":6390,"Ġswooped":6391,"ĠBetsy":6392,"Ġunf":6393,"Ġforks":6394,"Ġusually":6395,"Ġusual":6396,"Ġdar":6397,"Ġwinked":6398,"Ġsneezing":6399,"Ġsolut":6400,"ĠDara":6401,"Ġloading":6402,"Ġsponge":6403,"Ġinsects":6404,"ĠDee":6405,"ody":6406,"Ġpans":6407,"ĠStay":6408,"Ġsobbed":6409,"Ġgrowling":6410,"sm":6411,"Ġthroat":6412,"Ġnoses":6413,"ĠWant":6414,"ĠKids":6415,"Ġscarves":6416,"Ġconfident":6417,"Ġyourselves":6418,"arter":6419,"agull":6420,"ĠSuzie":6421,"Ġhomework":6422,"Ġsuperheroes":6423,"ĠAsh":6424,"Ġsmarter":6425,"Ġwindy":6426,"Ġlibrarian":6427,"Timmy":6428,"Ġgems":6429,"ĠFu":6430,"ora":6431,"Ġunderneath":6432,"Ġkicks":6433,"Ġknowled":6434,"Ġitchy":6435,"Ġjackets":6436,"Ġknowledge":6437,"ĠZiggy":6438,"Ġsurface":6439,"Ġuntie":6440,"Ġcomm":6441,"ĠQuack":6442,"Ġprincesses":6443,"Time":6444,"...\"":6445,"ido":6446,"Yeah":6447,"coon":6448,"ĠPaws":6449,"Ġsquares":6450,"Ġgiggling":6451,"Ġwarnings":6452,"iar":6453,"Those":6454,"Ġreads":6455,"vin":6456,"Ġchoo":6457,"Ġyounger":6458,"ĠDodo":6459,"Ġclowns":6460,"son":6461,"Ġropes":6462,"ĠWink":6463,"Our":6464,"ĠSadly":6465,"Hold":6466,"Ġbiting":6467,"Le":6468,"Ġcrowd":6469,"pite":6470,"Ġseagull":6471,"Ġpaddled":6472,"Ġwears":6473,"Ġdelivered":6474,"Ġonions":6475,"Ġbuzzed":6476,"Ġcomplained":6477,"eed":6478,"Ġbumpy":6479,"Ġstem":6480,"Ew":6481,"Ġpiggy":6482,"ĠSkip":6483,"ĠJones":6484,"Ġdirection":6485,"ouch":6486,"Ġdived":6487,"Ġstartled":6488,"Ġtangled":6489,"Ġleaning":6490,"bbie":6491,"pr":6492,"Roar":6493,"ĠFido":6494,"Ġbadge":6495,"ĠYesterday":6496,"ĠNana":6497,"ĠJessica":6498,"Fo":6499,"Ġdeal":6500,"Ġunp":6501,"though":6502,"ĠBuggy":6503,"Ġvowed":6504,"Ġnapkins":6505,"anes":6506,"Ġrisk":6507,"Ġtickled":6508,"Ġcovers":6509,"Ġpec":6510,"Shh":6511,"ĠCara":6512,"Ġyells":6513,"Ġsatisfied":6514,"ĠNear":6515,"Ġknocks":6516,"Ġrefreshed":6517,"tuce":6518,"cuse":6519,"Ġcous":6520,"ĠCathy":6521,"Ġarrows":6522,"Ġwipes":6523,"Ġspeaking":6524,"Ġlettuce":6525,"Ġguessing":6526,"ĠCindy":6527,"Ġripe":6528,"Ġhides":6529,"Ġchoices":6530,"ĠLion":6531,"Ġsigned":6532,"Ġslower":6533,"Ġseeker":6534,"Ġintroduced":6535,"irl":6536,"ĠKayla":6537,"Ġsinger":6538,"Ġcreating":6539,"ĠTara":6540,"Ġcent":6541,"Ġfroze":6542,"uggles":6543,"Ġjoked":6544,"Ġsqueal":6545,"Ġexplorers":6546,"Ġtoaster":6547,"ĠJulia":6548,"ĠMel":6549,"Ġavo":6550,"anging":6551,"Ġpraying":6552,"Ġwritten":6553,"Ġdiscovering":6554,"Ġprovided":6555,"Ġrefle":6556,"Excuse":6557,"Jack":6558,"Ġmushrooms":6559,"Ġknees":6560,"Ġpaying":6561,"fit":6562,"Ġhider":6563,"ences":6564,"Ġwandering":6565,"ĠRolly":6566,"Ġimages":6567,"Ġstung":6568,"Ġmagnets":6569,"Ġbarely":6570,"Ġbehaving":6571,"Ġtipto":6572,"?\",":6573,"Ġmarked":6574,"ĠSnuggles":6575,"brush":6576,"Dog":6577,"ĠGrumpy":6578,"Ġrestored":6579,"Ġleading":6580,"lled":6581,"Ġchuck":6582,"ĠOliver":6583,"Ġnine":6584,"ados":6585,"Ġgreet":6586,"Ġbravery":6587,"Ġgears":6588,"Ġcompetition":6589,"Ġoutfit":6590,"oline":6591,"Ġwishing":6592,"Ġproperly":6593,"Ġventured":6594,"aa":6595,"tle":6596,"Ġchat":6597,"Ġdances":6598,"Ġmuscle":6599,"Ġpens":6600,"Ġsalty":6601,"amb":6602,"ĠMikey":6603,"Ġranger":6604,"Ġdeserve":6605,"Ġhowever":6606,"rrr":6607,"sequ":6608,"Ġmatters":6609,"Ġdarkness":6610,"Ġburst":6611,"Ġrainy":6612,"Ġcobwebs":6613,"Ġruining":6614,"Ġchefs":6615,"Ġbak":6616,"Ġconsequ":6617,"Ġblocking":6618,"usted":6619,"itely":6620,"Ġscur":6621,"Ġvines":6622,"ĠCopper":6623,"Ġfab":6624,"abel":6625,"Ġfabric":6626,"Ġentire":6627,"Ġbasement":6628,"Ġleast":6629,"Ġperformed":6630,"ĠLaser":6631,"Ġscratches":6632,"Ġheavier":6633,"Cl":6634,"Ġmints":6635,"Ġavocados":6636,"Ġtwirling":6637,"fl":6638,"rink":6639,"ĠJay":6640,"Ġlosing":6641,"Ġscurried":6642,"Ġsunflowers":6643,"Ġrainco":6644,"Ġswords":6645,"Ġclick":6646,"ĠNothing":6647,"Ġjobs":6648,"Ġsilent":6649,"Grandma":6650,"Ġflames":6651,"Ġnecklaces":6652,"Ġrelief":6653,"ĠSnap":6654,"Ġsnat":6655,"Ġrotting":6656,"Ġsewed":6657,"Ġtricky":6658,"Ġlighter":6659,"ĠWithout":6660,"Listen":6661,"Ġbows":6662,"Ġexha":6663,"ĠPup":6664,"Ġsolution":6665,"Ġconsequences":6666,"len":6667,"Follow":6668,"ho":6669,"Ġstain":6670,"Ġtires":6671,"Ġunpacked":6672,"rance":6673,"ĠEx":6674,"ĠLarry":6675,"Ġpartic":6676,"Ġraces":6677,"Ġpins":6678,"Ġbumps":6679,"Ġwraps":6680,"ĠSophia":6681,"Ġwow":6682,"Ġbacked":6683,"Ġdecorating":6684,"aisies":6685,"cher":6686,"Ġdentist":6687,"Ġneedles":6688,"Ġpurr":6689,"Ġcautiously":6690,"Ġlifting":6691,"ĠTree":6692,"izzie":6693,"ĠThose":6694,"Ġaccomplish":6695,"Ġdaisies":6696,"Ġtriangles":6697,"ept":6698,"Ġhesitated":6699,"Ġannoy":6700,"Ġgrowls":6701,"ĠTwinkle":6702,"Ġcrackers":6703,"ĠBark":6704,"Ġstomped":6705,"Ġcott":6706,"Ġgrabbing":6707,"Ġbodies":6708,"Ġfigured":6709,"Ġmater":6710,"Ġbuying":6711,"Ġmaterial":6712,"oke":6713,"ĠPam":6714,"Ġswans":6715,"Ġties":6716,"Ġgri":6717,"vers":6718,"Ġgrows":6719,"ĠBloom":6720,"ĠGoodbye":6721,"Ġsweets":6722,"Ġowners":6723,"Ġcheeks":6724,"Ġflavor":6725,"ĠLizzie":6726,"Ġsuffering":6727,"vroom":6728,"Ġfact":6729,"Ġgroups":6730,"bly":6731,"Ġforehead":6732,"Ġlungs":6733,"Ġrepa":6734,"ĠTrust":6735,"Ġinterested":6736,"Ġbakery":6737,"ĠRain":6738,"Ġfreed":6739,"itches":6740,"ĠBall":6741,"Ġchuckled":6742,"Ġswept":6743,"Ġconn":6744,"?'":6745,"Ġthud":6746,"Ġexhausted":6747,"Ġtapped":6748,"Ġtwinkling":6749,"Ġnect":6750,"Ġnectar":6751,"ĠQ":6752,"elle":6753,"Ġfeast":6754,"ĠChrist":6755,"Ġdarling":6756,"ĠTry":6757,"indr":6758,"Ġworries":6759,"Ġuns":6760,"Ġtunnels":6761,"Ġfuzzy":6762,"Ġreason":6763,"ĠPeanut":6764,"Ġrepaired":6765,"ĠJune":6766,"ĠUp":6767,"Ġactivities":6768,"ĠListen":6769,"Ġpecked":6770,"Ġentrance":6771,"Ġmeals":6772,"Ġraindr":6773,"ĠEls":6774,"Ġcompletely":6775,"Ġparticular":6776,"Ġmailed":6777,"ĠFrost":6778,"ctions":6779,"Ġnests":6780,"Ġwaiter":6781,"Ġcuddly":6782,"Ġsense":6783,"Ġcolored":6784,"Ġleap":6785,"band":6786,"Ġplenty":6787,"step":6788,"Ġpeeking":6789,"no":6790,"Ġslammed":6791,"ĠBirthday":6792,"Ġplayers":6793,"Ġbudge":6794,"Ġmonth":6795,"Ġscra":6796,"Ġforgets":6797,"Ġden":6798,"ĠFrosty":6799,"Ġhandful":6800,"ĠRobert":6801,"Ġmer":6802,"ĠRollie":6803,"Ġgenie":6804,"Ġstool":6805,"iggie":6806,"Ġtalks":6807,"ossible":6808,"Ġfeeding":6809,"Ġpassports":6810,"Ġfilms":6811,"Ġbaths":6812,"Ġimpossible":6813,"ĠStella":6814,"ĠNick":6815,"Ġdetermination":6816,"ĠâĢĺ":6817,"Ġprinting":6818,"boat":6819,"Ġdesigned":6820,"ĠOther":6821,"Ġbuses":6822,"Ġopp":6823,"lephant":6824,"ueen":6825,"Ġbars":6826,"Ġsuitcase":6827,"Ġnibb":6828,"Ġcounts":6829,"Ġstolen":6830,"Ġspreading":6831,"Ġspikes":6832,"Lila":6833,"Ġsteer":6834,"Ġwiping":6835,"Ġlamb":6836,"Ġhonked":6837,"nies":6838,"Ġcowb":6839,"ky":6840,"Ġseparated":6841,"blings":6842,"Ġsiblings":6843,"Ġhops":6844,"Whee":6845,"ĠLau":6846,"Ġchop":6847,"Ġfires":6848,"Ġsewing":6849,"Ġfever":6850,"Ġtwinkle":6851,"Ġty":6852,"Ġcamping":6853,"Ġlower":6854,"Ġchanging":6855,"yes":6856,"retch":6857,"Ġbehavi":6858,"ĠMissy":6859,"Rex":6860,"mas":6861,"Ġliqu":6862,"Ġcelebration":6863,"Ġdollhouse":6864,"Ġsquealed":6865,"Ġbackward":6866,"Ġage":6867,"ĠMaya":6868,"but":6869,"Ġsnatched":6870,"ĠBiggie":6871,"ĠAbbie":6872,"Ġcash":6873,"Bobo":6874,"Ġtwice":6875,"ĠMic":6876,"Ġsway":6877,"lee":6878,"itched":6879,"uzz":6880,"Ġcelebrating":6881,"Ġache":6882,"Ġshrinking":6883,"Ġkings":6884,"weed":6885,"ĠHold":6886,"rious":6887,"Ġshops":6888,"Ġkittens":6889,"ĠRobbie":6890,"cope":6891,"Ġhus":6892,"cky":6893,"Ġtouches":6894,"ĠLia":6895,"airy":6896,"Ġpancakes":6897,"Ġavoid":6898,"Ġspat":6899,"hog":6900,"rig":6901,"ĠWoof":6902,"Ġpaths":6903,"hile":6904,"ives":6905,"Ġrotten":6906,"Ġcalmed":6907,"Ġdropping":6908,"Ġseaweed":6909,"iles":6910,"Ġtwisting":6911,"Ġstroked":6912,"Ġuntied":6913,"llen":6914,"Ġplayhouse":6915,"Ġstudents":6916,"Ġpuppies":6917,"cl":6918,"hi":6919,"ĠIzzy":6920,"ĠRy":6921,"Ġscrews":6922,"Ġastron":6923,"Ġsomebody":6924,"ĠChris":6925,"igning":6926,"Ġliquid":6927,"Ġsquish":6928,"Ġwakes":6929,"ĠLaura":6930,"ĠRobo":6931,"Ġbracelets":6932,"Ġastronaut":6933,"immer":6934,"aren":6935,"Ġthrown":6936,"Ġloops":6937,"Ġwrapping":6938,"Ġplain":6939,"Ġtramp":6940,"Ġplanning":6941,"Ġaimed":6942,"Ġskunk":6943,"Ġpennies":6944,"ĠFuzzy":6945,"Ġshoo":6946,"Ġdancers":6947,"Ġlifts":6948,"Ġsparks":6949,"Ġfirefly":6950,"pen":6951,"ĠChristmas":6952,"Ġposter":6953,"Ġcust":6954,"endy":6955,"Ġrewarded":6956,"Ġobjects":6957,"Ġdirections":6958,"ingo":6959,"using":6960,"Ġreflection":6961,"Ġhusband":6962,"âĢĶ":6963,"river":6964,"ĠDoctor":6965,"Take":6966,"ĠRich":6967,"ĠQueen":6968,"Ġclues":6969,"uppy":6970,"ĠWoo":6971,"ĠSparky":6972,"Ġleads":6973,"Ġincreased":6974,"Ġblocked":6975,"Ġrising":6976,"Ġdod":6977,"Ġcousin":6978,"ĠElephant":6979,"Ġforgetting":6980,"rigued":6981,"Ġcustom":6982,"ĠRudy":6983,"Ġbeginning":6984,"Ġtrampoline":6985,"Ġstorekeeper":6986,"Ġpouted":6987,"artha":6988,"Ġzebras":6989,"Ġaff":6990,"Ġhedgehog":6991,"ĠRyan":6992,"ĠAng":6993,"Ġborrowed":6994,"ĠKaren":6995,"Ġsnowfl":6996,"Ġcountryside":6997,"ude":6998,"Ġmesmer":6999,"Ġvehicles":7000,"ĠOnly":7001,"Ġinstrum":7002,"ĠMoon":7003,"Ġfrowning":7004,"Some":7005,"ivity":7006,"Buddy":7007,"Ġmarker":7008,"yond":7009,"Ġbeyond":7010,"ĠFire":7011,"Ġpresses":7012,"Ġfart":7013,"Ġdamage":7014,"ivery":7015,"ammy":7016,"ĠAlong":7017,"iece":7018,"ĠFarm":7019,"jo":7020,"Beep":7021,"Ġhealth":7022,"Ġwhispers":7023,"Ġslips":7024,"Ġswimsuit":7025,"Ġflapping":7026,"Ġwarmer":7027,"ĠEmmy":7028,"ĠMartha":7029,"Ġtiptoed":7030,"Ġregretted":7031,"ĠSim":7032,"itted":7033,"Ġlaying":7034,"Ġyelp":7035,"ades":7036,"Ġeverybody":7037,"Ġglued":7038,"Ġrains":7039,"ĠStretch":7040,"ĠMabel":7041,"Ġcreations":7042,"Ġhearing":7043,"Ġcolder":7044,"iversity":7045,"ael":7046,"nk":7047,"Ġshaped":7048,"Ġfins":7049,"Ġstreets":7050,"Ġcushions":7051,"Ġrusty":7052,"ĠSw":7053,"Ġfarthest":7054,"Ġcreativity":7055,"ĠMa":7056,"Ġsale":7057,"ans":7058,"ĠToot":7059,"iam":7060,"Ġstrongest":7061,"Ġfits":7062,"ibbit":7063,"Ġbells":7064,"Ġdollars":7065,"Ġearn":7066,"ĠRon":7067,"angle":7068,"Ġlending":7069,"ĠBeaky":7070,"eese":7071,"Ġcashier":7072,"Ġincluding":7073,"Ġsank":7074,"Ġsniffs":7075,"Ġraincoat":7076,"Ġstopping":7077,"Ġtrembled":7078,"Always":7079,"Ġsource":7080,"iti":7081,"Ġindeed":7082,"Ġwobbly":7083,"ters":7084,"ĠFarmer":7085,"Ġguests":7086,"Ġsingle":7087,"Ġrecommended":7088,"ĠGranny":7089,"Ġspells":7090,"ĠTia":7091,"Ġaccomplishment":7092,"Ġbelts":7093,"Ġsurprising":7094,"Ġends":7095,"ĠAfterwards":7096,"ĠSnowman":7097,"Ġhopeful":7098,"ĠTake":7099,"eal":7100,"Ġseasons":7101,"Ġplans":7102,"Jump":7103,"ichael":7104,"Ġencourag":7105,"Ġsupported":7106,"stick":7107,"Ġsuffered":7108,"Ġartist":7109,"illed":7110,"Ġperformance":7111,"eet":7112,"Ġslowed":7113,"Ġgross":7114,"Ġflavors":7115,"iding":7116,"Ġspins":7117,"ertain":7118,"cho":7119,"Ġlabels":7120,"ĠSimon":7121,"Ġdelivery":7122,"Ġraindrops":7123,"uing":7124,"arac":7125,"Ġraccoon":7126,"Ġforgiving":7127,"obody":7128,"Ġpours":7129,"ility":7130,"Ġstands":7131,"Ġturtles":7132,"Ġvanilla":7133,"ĠBones":7134,"ĠMichael":7135,"uess":7136,"Ġbeam":7137,"Ġrecipe":7138,"Ġtying":7139,"ĠSpirit":7140,"Ġgeese":7141,"Ġwilling":7142,"Ġdrawn":7143,"Ġrobber":7144,"Ġwept":7145,"Ġcharac":7146,"ĠKit":7147,"Ġcorners":7148,"Ġpops":7149,"ĠHolly":7150,"elia":7151,"Ġqueens":7152,"Ġdie":7153,"Ġsailboat":7154,"ĠBarky":7155,"Ġgrip":7156,"Ġdrivers":7157,"itude":7158,"Ġmoo":7159,"Ġimagining":7160,"Ġhallway":7161,"Ġseconds":7162,"Vroom":7163,"ĠAna":7164,"ĠJump":7165,"Ġpreparing":7166,"Ġwidened":7167,"Mine":7168,"Ġcoop":7169,"Ġgrocer":7170,"ĠPatch":7171,"Ġtalented":7172,"ĠJanie":7173,"Ġsailors":7174,"ummies":7175,"ĠTiti":7176,"Tr":7177,"lling":7178,"Ġaside":7179,"Ġsofter":7180,"Ġwatering":7181,"Ġknots":7182,"Ġsending":7183,"Ġtipped":7184,"Ġunsure":7185,"Ġtreehouse":7186,"Ġhoriz":7187,"ĠPh":7188,"Ġnotes":7189,"Ġecho":7190,"igers":7191,"Ġachieved":7192,"ĠExc":7193,"ĠCrab":7194,"Ġhorizon":7195,"Ġsqueak":7196,"Ġdelivering":7197,"ĠPlay":7198,"Ġhotter":7199,"Ġpleasure":7200,"ĠZee":7201,"Ġpupils":7202,"Ġburrow":7203,"Ġangels":7204,"Ġcuriously":7205,"Ġyum":7206,"Ġblinking":7207,"Ġdet":7208,"Ġtweet":7209,"Ġsymbols":7210,"wk":7211,"Ġpassen":7212,"Ġtummies":7213,"Ġtiss":7214,"Ġpigeons":7215,"Ġfigures":7216,"umbling":7217,"Ġbandages":7218,"ĠTurt":7219,"Ġcoup":7220,"oey":7221,"ĠSl":7222,"Ġrobots":7223,"Ġtossed":7224,"Ġhour":7225,"Ġbackwards":7226,"Ġroars":7227,"alph":7228,"Ġmerma":7229,"Ġrather":7230,"atur":7231,"ĠTess":7232,"ighting":7233,"Ġgroceries":7234,"Ġzipping":7235,"ĠZoey":7236,"Ġunw":7237,"ĠExcited":7238,"Ġamong":7239,"Ġicing":7240,"Ġblown":7241,"Put":7242,"ĠThanks":7243,"Ġrumble":7244,"Ġafterwards":7245,"!âĢĿ.":7246,"ipper":7247,"Ġscrewd":7248,"Ġglee":7249,"Ġsped":7250,"Ġprove":7251,"ushing":7252,"Ġdip":7253,"Ġovercome":7254,"Ġsurfboard":7255,"Quack":7256,"print":7257,"Ġshovels":7258,"Ġslices":7259,"ĠJackie":7260,"Ġmerry":7261,"Ġmate":7262,"ĠRalph":7263,"Ġwobble":7264,"ĠWendy":7265,"Ġheading":7266,"Ġdisturbing":7267,"ĠAbi":7268,"ĠWo":7269,"Ġswall":7270,"Ġreversed":7271,"Ġfirefighters":7272,"Ġswallowed":7273,"Ġchip":7274,"Ġscored":7275,"Ġflipped":7276,"eds":7277,"Ġsqueezing":7278,"Ġwaking":7279,"Ġintrigued":7280,"ĠMarie":7281,"Ġmaker":7282,"Ġpuff":7283,"awn":7284,"Ġhawk":7285,"usty":7286,"Ġencouraging":7287,"Ġaud":7288,"ĠLenny":7289,"Very":7290,"onies":7291,"ĠWilly":7292,"Ġchos":7293,"Ġchosen":7294,"ĠDavey":7295,"Ġcouple":7296,"the":7297,"Ġdesigns":7298,"ĠDes":7299,"Ġslipping":7300,"Ġscrewdriver":7301,"Ġsquishy":7302,"Like":7303,"Ġgardener":7304,"Ġcenter":7305,"Ġrivers":7306,"Ġmarkers":7307,"Ġrespond":7308,"Ġtigers":7309,"iley":7310,"Ġjars":7311,"pecting":7312,"Ġfrowns":7313,"bird":7314,"Ġfluttered":7315,"Ġfirefighter":7316,"Ġsecure":7317,"Ġsuits":7318,"Ġsprinkled":7319,"Ġcreamy":7320,"Ġbru":7321,"ashes":7322,"Ġsharks":7323,"Ġignoring":7324,"Ġgiggles":7325,"ĠSleep":7326,"ĠTweetie":7327,"Ribbit":7328,"Ġtighter":7329,"Ġtissue":7330,"Ġfirmly":7331,"Bl":7332,"ĠNobody":7333,"ĠJacky":7334,"Ġshown":7335,"ĠRoo":7336,"Ġfamiliar":7337,"fly":7338,"Ġthorns":7339,"ĠTime":7340,"Ġdrawers":7341,"child":7342,"Ġdef":7343,"Ġexpress":7344,"ĠJudy":7345,"Ġdaring":7346,"ments":7347,"Ġcrossing":7348,"Ġaudience":7349,"ĠSince":7350,"Ġcloudy":7351,"Ġperforming":7352,"Ġcoloured":7353,"Ġcor":7354,"Ġais":7355,"ĠTurtle":7356,"rat":7357,"Ġpedaled":7358,"Ġmixture":7359,"Fr":7360,"Ġgracefully":7361,"ggy":7362,"Ġ2":7363,"Ġhaircuts":7364,"Ġyielded":7365,"Ġponies":7366,"Ġdisob":7367,"Ġcrowns":7368,"Ġbits":7369,"Fin":7370,"Get":7371,"Ġtodd":7372,"Ġhangers":7373,"Ġnervously":7374,"bbled":7375,"ĠChewy":7376,"ĠKip":7377,"ĠTodd":7378,"Ġpays":7379,"Ġpeck":7380,"Ġev":7381,"Ġstroke":7382,"fall":7383,"Ġnapped":7384,"Ġrespected":7385,"aven":7386,"Ġminded":7387,"ĠWise":7388,"ĠMomma":7389,"ddie":7390,"ably":7391,"ĠAli":7392,"Ġtested":7393,"Boys":7394,"ading":7395,"parent":7396,"ĠMaddie":7397,"arrow":7398,"ĠUniversity":7399,"Ġbeeh":7400,"Ġneighbours":7401,"Ġsurfing":7402,"ĠBally":7403,"First":7404,"vered":7405,"Ġshady":7406,"ĠYet":7407,"Ġdarl":7408,"iona":7409,"Ġmagician":7410,"Ġenthusiasm":7411,"Ġdarlings":7412,"Ġwisely":7413,"Ġstitches":7414,"ĠJojo":7415,"Ġsails":7416,"ĠYog":7417,"Ġthoughts":7418,"Ġweekend":7419,"Ġreminds":7420,"fted":7421,"ĠMina":7422,"Ġtemper":7423,"oring":7424,"ilted":7425,"antha":7426,"Ġfleas":7427,"Ġsurroundings":7428,"Ġspits":7429,"Ġteams":7430,"Ġfills":7431,"Ġlessons":7432,"een":7433,"Ġflip":7434,"Dear":7435,"Ġpaintbrush":7436,"Ġmelons":7437,"ĠPuppy":7438,"Ġmermaid":7439,"Bang":7440,"ĠAlthough":7441,"ĠOutside":7442,"ĠWin":7443,"Ġgrandchild":7444,"Ġexplo":7445,"Ġelbow":7446,"Ġhoops":7447,"ĠSoft":7448,"ĠCu":7449,"Ġsports":7450,"Ġlies":7451,"ĠFighting":7452,"rac":7453,"ĠFiona":7454,"Ġpanicked":7455,"Ġamount":7456,"Ġcleaner":7457,"cused":7458,"Ġlongest":7459,"ĠSamantha":7460,"Ġscooters":7461,"Ġlent":7462,"ĠSadie":7463,"Ġsill":7464,"ita":7465,"Ġbeloved":7466,"immering":7467,"Ġbeehive":7468,"Alright":7469,"lle":7470,"ongrat":7471,"oni":7472,"Ġoysters":7473,"Ġgrandparent":7474,"ĠMixy":7475,"ongratul":7476,"Guess":7477,"ĠMother":7478,"Ġforgiven":7479,"Ġmagazines":7480,"ĠSparkle":7481,"Ġarr":7482,"Ġelf":7483,"ces":7484,"Ġrepeating":7485,"Ġdiscussed":7486,"ĠDani":7487,"Ġsweetest":7488,"Ġwadd":7489,"ĠEverybody":7490,"Ġreass":7491,"Keep":7492,"Ġnightmares":7493,"Ġtubes":7494,"Ġunderstands":7495,"Ġspoonful":7496,"Ġnood":7497,"ĠPen":7498,"Ġbathing":7499,"asty":7500,"Ġmanners":7501,"Ġsweep":7502,"crow":7503,"Ġbully":7504,"Ġnur":7505,"Ġwrink":7506,"Ġsprang":7507,"Ġguide":7508,"Ġcrew":7509,"ĠMint":7510,"ĠAmelia":7511,"omise":7512,"onna":7513,"Ġbreathed":7514,"ently":7515,"ilda":7516,"steps":7517,"while":7518,"ĠWell":7519,"ĠKe":7520,"Ġbulbs":7521,"Ġcoug":7522,"Ġneare":7523,"Ġgrassy":7524,"Ġspies":7525,"Ġtesting":7526,"Ġwiggly":7527,"ĠEddie":7528,"Ġsolving":7529,"Ġsheets":7530,"Ġfootsteps":7531,"ĠStart":7532,"immy":7533,"ntil":7534,"Ġspeeding":7535,"Doggy":7536,"hew":7537,"Ġfocused":7538,"cept":7539,"ounced":7540,"?!\"":7541,"ĠHerb":7542,"Ġbraver":7543,"Ġcamel":7544,"Ġmesmerized":7545,"Ġhesitant":7546,"Ġlicking":7547,"Ġrushing":7548,"ĠAngel":7549,"Moo":7550,"Ġjoining":7551,"Ġpolar":7552,"Ġgreeted":7553,"Ġworn":7554,"Ġchanges":7555,"ĠUntil":7556,"Ġmaterials":7557,"undred":7558,"ĠDespite":7559,"ĠBess":7560,"Ġstored":7561,"Which":7562,"Ġbicycles":7563,"Ġmast":7564,"ĠBack":7565,"Ġanger":7566,"Ġpeacefully":7567,"Leave":7568,"Ġships":7569,"ĠShow":7570,"Tweet":7571,"Ġspice":7572,"Ġnuzz":7573,"Ġgonna":7574,"Ġterrified":7575,"ĠCow":7576,"Ġpolitely":7577,"Ġscarecrow":7578,"Ġspills":7579,"ĠMean":7580,"Ġknives":7581,"ĠMeg":7582,"Ġevil":7583,"ppies":7584,"Ġburying":7585,"Billy":7586,"ca":7587,"On":7588,"Ġaren":7589,"Ġhealing":7590,"Ġdonkey":7591,"Ġaeroplanes":7592,"freeze":7593,"Ġmiles":7594,"Ġseals":7595,"agic":7596,"Ġscattering":7597,"Ġdump":7598,"amboo":7599,"ĠNice":7600,"Ġworrying":7601,"Mimi":7602,"ĠGary":7603,"zoom":7604,"beep":7605,"--":7606,"Ġpuzzled":7607,"Ġstacked":7608,"ĠRuth":7609,"Ġloses":7610,"dding":7611,"Ġbaskets":7612,"Ġtravelled":7613,"ĠOkay":7614,"Ġblast":7615,"Ġgazing":7616,"ĠChess":7617,"erm":7618,"ĠFairy":7619,"ipes":7620,"Ġtemperature":7621,"Ġund":7622,"Ġclue":7623,"Ġtasting":7624,"Ġdripping":7625,"Ġbelieving":7626,"Ġ10":7627,"Ġpinching":7628,"Ġsoaking":7629,"Ġrats":7630,"Hurry":7631,"isc":7632,"ĠPoor":7633,"Ġsandy":7634,"ĠIsn":7635,"rect":7636,"ĠMindy":7637,"rey":7638,"ĠMeanwhile":7639,"ĠHug":7640,"ĠNavy":7641,"Ġbanged":7642,"Ġpunishment":7643,"Ġhumans":7644,"Ġcrashing":7645,"ĠSof":7646,"Ġhundred":7647,"Ġgest":7648,"ĠBra":7649,"Ġswimmer":7650,"ĠTe":7651,"Ġsnowflakes":7652,"Ġrelaxing":7653,"form":7654,"Ġresisted":7655,"ĠStan":7656,"Ġbeeped":7657,"Ġquarreled":7658,"Ġramp":7659,"elie":7660,"Ġjoins":7661,"ĠStill":7662,"abby":7663,"ĠDina":7664,"Ġbackpacks":7665,"ĠEliz":7666,"Ġdressing":7667,"Ġdelayed":7668,"years":7669,"ĠCr":7670,"Ġtoddler":7671,"Ġflight":7672,"Ġcovering":7673,"ĠAnother":7674,"orter":7675,"Ġbenches":7676,"Quick":7677,"Ġencouragement":7678,"Ġtoward":7679,"ĠMaddy":7680,"Ġscraped":7681,"Open":7682,"Ġfocus":7683,"Ġpurpose":7684,"Ġcorrect":7685,"'.\"":7686,"Ġlipstick":7687,"Ġbamboo":7688,"ider":7689,"Ġpotion":7690,"Ġpermitted":7691,"Ġtwinkled":7692,"Ġmonths":7693,"Ġlanguages":7694,"Ġorders":7695,"Ġfreedom":7696,"Ġmaster":7697,"Ġpoppies":7698,"ĠJudge":7699,"Ġrisks":7700,"ĠMaisy":7701,"shm":7702,"Ġnoodles":7703,"Ġfaded":7704,"ĠBlinky":7705,"Ġwounds":7706,"All":7707,"rier":7708,"ĠLoop":7709,"shmallow":7710,"isions":7711,"Ġbirdhouse":7712,"Ġcreams":7713,"Ġcells":7714,"Ġannoyed":7715,"opes":7716,"Ġcheers":7717,"Ġsniffing":7718,"Ġadults":7719,"Ġunwra":7720,"Ġpuck":7721,"ecca":7722,"Ġfloats":7723,"Ġopinions":7724,"ĠJonny":7725,"ĠSofia":7726,"Ġ5":7727,"andas":7728,"ĠRia":7729,"ĠShelly":7730,"Ġflown":7731,"ĠEva":7732,"Ġscen":7733,"Ġhandsome":7734,"Ġsneezes":7735,"Kids":7736,"Ġnodding":7737,"Ġsmelling":7738,"Ġburnt":7739,"ĠRazor":7740,"Ġdrifted":7741,"bage":7742,"Ġwithin":7743,"Ġheight":7744,"Ġscient":7745,"Ġbothering":7746,"Ġdamaged":7747,"Ġslither":7748,"Ġtearing":7749,"Ġpleaded":7750,"Ġinstruments":7751,"Ġease":7752,"ĠYoga":7753,"Ġscientist":7754,"Ġpound":7755,"ĠSay":7756,"Ġhanding":7757,"Ġseller":7758,"Ġgerm":7759,"Ġwasting":7760,"ĠFlick":7761,"Ġfiles":7762,"Ġdreamt":7763,"Goodnight":7764,"Ġresults":7765,"ĠZippy":7766,"bell":7767,"Ġexplains":7768,"Ġdestroying":7769,"Ġbrushing":7770,"Ġhiss":7771,"ousy":7772,"Ġcharacters":7773,"Ġcertain":7774,"Ġsweaty":7775,"unched":7776,"ĠMegan":7777,"Ġbusiness":7778,"ĠPrince":7779,"In":7780,"ĠHoney":7781,"Ġonward":7782,"ĠFe":7783,"Ġtalents":7784,"Ġbravest":7785,"Ġengines":7786,"ition":7787,"Ġsternly":7788,"Ġswirl":7789,"Ġpostman":7790,"Ġmosquitoes":7791,"prints":7792,"Ġminds":7793,"cake":7794,"under":7795,"Ġtuck":7796,"Ġscares":7797,"ĠRicky":7798,"Ġstomp":7799,"Ġapologised":7800,"Ġmanag":7801,"Ġbitten":7802,"ĠSe":7803,"Ġsnuck":7804,"ĠGerry":7805,"Sn":7806,"uel":7807,"Ġtilted":7808,"Ġswitched":7809,"Ġdecisions":7810,"Ġreminding":7811,"attered":7812,"ĠFrankie":7813,"Ġsingers":7814,"Ġdesper":7815,"ĠShadow":7816,"Ġbehavior":7817,"ashing":7818,"bbers":7819,"Ġsqueaked":7820,"Ġpeeled":7821,"Try":7822,"ĠCari":7823,"inny":7824,"Ġyumm":7825,"Ġpurrs":7826,"ĠMousy":7827,"Ġsmashed":7828,"ĠRuff":7829,"Ġtreated":7830,"Ġdisplayed":7831,"Ġrustling":7832,"Ġneatly":7833,"Ġmatey":7834,"Ġplanting":7835,"An":7836,"Ġmarshmallow":7837,"ĠKaty":7838,"Ġinsp":7839,"Big":7840,"Ġsy":7841,"Ġcracks":7842,"Ġbellies":7843,"Ġyelped":7844,"Ġgrandparents":7845,"aver":7846,"Ġscamp":7847,"ĠNut":7848,"Ġshines":7849,"Ġhoo":7850,"Ġfailed":7851,"Ġcoloring":7852,"ĠFishy":7853,"ĠMake":7854,"ĠLuc":7855,"line":7856,"Ġzooms":7857,"rup":7858,"Ġnasty":7859,"Ġbreathing":7860,"Ġcombed":7861,"Ġpandas":7862,"Ġdespite":7863,"ĠCurious":7864,"Ġaddress":7865,"ĠTri":7866,"ighing":7867,"Ġwaterfall":7868,"ĠCro":7869,"uffin":7870,"Tw":7871,"cc":7872,"Ġrobbers":7873,"Ġantic":7874,"ĠNancy":7875,"Ġwider":7876,"ĠLouise":7877,"ĠIm":7878,"Ġdoorway":7879,"ĠPatty":7880,"Ġsweaters":7881,"Ġechoed":7882,"Ġedges":7883,"omp":7884,"Ġinj":7885,"Ġforce":7886,"Ġgap":7887,"Ġdisobey":7888,"wise":7889,"Ġtar":7890,"ĠRita":7891,"Daisy":7892,"orking":7893,"oscope":7894,"Ġmagnif":7895,"Ġtaped":7896,"father":7897,"Ġaction":7898,"Ġscolds":7899,"Ġflaps":7900,"Ġcrawls":7901,"Ġgobbled":7902,"Ġbacks":7903,"Ġswap":7904,"Ġwarri":7905,"ĠViv":7906,"Ġsteth":7907,"Ġsever":7908,"ĠGl":7909,"Ġcurl":7910,"Ġshinier":7911,"Ġprobably":7912,"Ġnewspapers":7913,"ĠBang":7914,"Ġocc":7915,"ĠKelly":7916,"Ġseveral":7917,"Ġencount":7918,"Wake":7919,"Ġplucked":7920,"Ġquieter":7921,"Ġserving":7922,"ĠShare":7923,"Ġconnected":7924,"tock":7925,"Ġouch":7926,"ĠNurse":7927,"igger":7928,"ĠFlo":7929,"ĠJax":7930,"Ġgesture":7931,"Ġplot":7932,"Ġdoorbell":7933,"Ġstudent":7934,"Ġcares":7935,"Ġsquaw":7936,"ĠBubba":7937,"fire":7938,"ĠJoh":7939,"Ġrescuing":7940,"Ġgrandson":7941,"Ġgoo":7942,"Ġspy":7943,"Ġrows":7944,"Ġsimply":7945,"Ġwhistles":7946,"mies":7947,"ĠBri":7948,"Play":7949,"vant":7950,"Ġshorter":7951,"ĠPl":7952,"Ġsnaps":7953,"Ġastronauts":7954,"Bunny":7955,"ssss":7956,"Ġunpacking":7957,"Ġcottage":7958,"Too":7959,"Ġswo":7960,"Ġaccidents":7961,"For":7962,"Ġmood":7963,"Shrink":7964,"ibi":7965,"Ġswollen":7966,"verse":7967,"ĠKevin":7968,"Zoom":7969,"abelle":7970,"Ġbothered":7971,"ĠMuffin":7972,"aint":7973,"Ġstethoscope":7974,"ĠAr":7975,"ĠElle":7976,"Ġcausing":7977,"Ġtrusting":7978,"ĠWooly":7979,"ĠPhil":7980,"ĠBad":7981,"Ġdresser":7982,"Ġleapt":7983,"Ġsou":7984,"found":7985,"Ġpills":7986,"Ġproper":7987,"retty":7988,"ears":7989,"Ġthroughout":7990,"Magic":7991,"Ġrunner":7992,"Ġprayers":7993,"ĠNe":7994,"Ġjoyful":7995,"what":7996,"ĠReady":7997,"ĠVroom":7998,"mates":7999,"Ġlocks":8000,"ĠWait":8001,"ulp":8002,"Ġgoats":8003,"Ġtarget":8004,"rest":8005,"Ġdears":8006,"ĠToys":8007,"Ġmunch":8008,"Ġflips":8009,"Ġwaddled":8010,"Ġlowered":8011,"ĠPop":8012,"Ġstepping":8013,"ĠStartled":8014,"ĠTaking":8015,"ĠFlop":8016,"Ġcons":8017,"ĠSpeed":8018,"Ġteachers":8019,"Ġcowboy":8020,"ĠDaniel":8021,"Ġinches":8022,"Ġenvelopes":8023,"Ġchar":8024,"ĠElsa":8025,"ĠTy":8026,"Ġexplorer":8027,"Ġanticip":8028,"Ġplayd":8029,"unity":8030,"ening":8031,"ĠFel":8032,"Ġfloors":8033,"Ġknocking":8034,"Ġefforts":8035,"Ġuniforms":8036,"lied":8037,"Ġaware":8038,"Ġfootprints":8039,"Nice":8040,"ĠBumpy":8041,"Ġnearly":8042,"llas":8043,"ĠBibi":8044,"Ġdisc":8045,"Ġsens":8046,"Ġwhimp":8047,"Ġtrot":8048,"Ġglitt":8049,"Ġappreciation":8050,"ĠBecky":8051,"Ġnecks":8052,"Ġchecks":8053,"Ġcollap":8054,"Ġlapt":8055,"Ġexcept":8056,"Ġplug":8057,"ĠMin":8058,"Ġcharge":8059,"rie":8060,"oosh":8061,"ĠRog":8062,"Ġfluttering":8063,"Ġumbrellas":8064,"Ġstamped":8065,"ĠSeeing":8066,"Ġsandcastles":8067,"Ġstatues":8068,"omb":8069,"ails":8070,"Ġshrank":8071,"iscuit":8072,"rily":8073,"Ġfinishing":8074,"Ġprick":8075,"Ġadds":8076,"ĠBiggy":8077,"ĠOt":8078,"rons":8079,"ĠJoan":8080,"Ġchocolates":8081,"Ġhunters":8082,"Ġstroll":8083,"Ġdodged":8084,"Blue":8085,"Ġpassengers":8086,"Ġgerms":8087,"ĠVivi":8088,"Ġwrigg":8089,"Ġaprons":8090,"Ġaisle":8091,"ĠCle":8092,"Ġsets":8093,".'\"":8094,"Ġweeds":8095,"Ġnovels":8096,"order":8097,"Ġdemanding":8098,"ĠZipper":8099,"Ġscratching":8100,"Ġmeows":8101,"ĠDe":8102,"issa":8103,"Ġnurses":8104,"Ġminding":8105,"Ġdiscussing":8106,"Ġkilled":8107,"urrender":8108,"Ġdriveway":8109,"Ġbecomes":8110,"acy":8111,"Ġhaird":8112,"ĠOh":8113,"ĠJason":8114,"Ġtoolbox":8115,"Ġlaptop":8116,"Ġposit":8117,"Ġattack":8118,"Luna":8119,"So":8120,"sol":8121,"Ġbounces":8122,"Ġscampered":8123,"Ġdeed":8124,"Ġsprays":8125,"Ġsupplied":8126,"ĠSofty":8127,"Ġtempt":8128,"Ġburns":8129,"Ġfriendships":8130,"Ġsuggestion":8131,"Every":8132,"Ġslapping":8133,"Ġclosing":8134,"Arrr":8135,"Ġbelongings":8136,"Ġinvites":8137,"Ġanticipation":8138,"ĠRoger":8139,"Ġform":8140,"ĠEric":8141,"Ġspringing":8142,"Ġerase":8143,"Ġcotton":8144,"Ġrays":8145,"Ġtwists":8146,"ĠNever":8147,"Ġforgives":8148,"Ġsnuggle":8149,"Ġmodels":8150,"ĠVicky":8151,"Ġshall":8152,"ĠJolly":8153,"ĠGus":8154,"Ġhumming":8155,"Ġmassages":8156,"ĠMan":8157,"Ġnewfound":8158,"Ġconc":8159,"Ġresponded":8160,"Ġexpecting":8161,"Ġghosts":8162,"Ġcheated":8163,"Does":8164,"ots":8165,"ĠYawn":8166,"ĠFlutter":8167,"otte":8168,"Ġtraveling":8169,"Ġalthough":8170,"Ġcond":8171,"Ġbattle":8172,"Ġmommies":8173,"alloween":8174,"Friend":8175,"Ġaim":8176,"Ġcarries":8177,"Ġinvitations":8178,"ĠMae":8179,"ĠAg":8180,"Ġrefreshing":8181,"ĠRel":8182,"Ġpresented":8183,"Chirp":8184,"Ġrowed":8185,"Ġtwenty":8186,"ĠGrand":8187,"Ġsquir":8188,"Someone":8189,"ĠBingo":8190,"Jane":8191,"Ġfoxes":8192,"Ġcooper":8193,"Ġfinal":8194,"Ġduckling":8195,"ĠElsie":8196,"ĠZack":8197,"Ġcafe":8198,"ĠGray":8199,"ĠDotty":8200,"Ġmarshmallows":8201,"Ġclicked":8202,"ĠFreddie":8203,"Ġbeaver":8204,"Ġdesigning":8205,"Ġjets":8206,"five":8207,"ĠHalloween":8208,"ĠWhoever":8209,"Ġmugs":8210,"Ġdrown":8211,"po":8212,"onnie":8213,"Ġtricycle":8214,"Ġconvin":8215,"Ġpicnics":8216,"Ġoppos":8217,"iens":8218,"ĠTerry":8219,"inted":8220,"ĠCharlotte":8221,"Un":8222,"Ġcongratul":8223,"Ġscoops":8224,"off":8225,"Ġaliens":8226,"ĠâĢĶ":8227,"Ġtravels":8228,"Ġtests":8229,"Ġquestioned":8230,"ĠLina":8231,"ĠPiggy":8232,"Ġstrips":8233,"ana":8234,"Ġdefe":8235,"covered":8236,"ĠTruck":8237,"hel":8238,"ended":8239,"Ġfights":8240,"ĠChick":8241,"roken":8242,"Ġopposite":8243,"Hmm":8244,"Ġrout":8245,"Ġgrandfather":8246,"Ġafford":8247,"Ġencountered":8248,"Ġdecl":8249,"inch":8250,"Whiskers":8251,"ĠMore":8252,"Ġraising":8253,"iment":8254,"Ġupside":8255,"Ġflashed":8256,"Ġcalmly":8257,"Ġrealizes":8258,"Ġyawning":8259,"Ġsincere":8260,"ĠPlaying":8261,"Find":8262,"Ġbuddy":8263,"ĠWilliam":8264,"Ġcrystals":8265,"aturday":8266,"Ġcupcakes":8267,"Ġbuckled":8268,"ĠMissile":8269,"byes":8270,"ĠFlappy":8271,"Ġwinners":8272,"Ġdefin":8273,"ĠSaturday":8274,"ĠThunder":8275,"ĠQuacky":8276,"',":8277,"Ġcaw":8278,"Ġweapons":8279,"Ġcheat":8280,"shadow":8281,"Ġpackages":8282,"ĠAmanda":8283,"Ġsacks":8284,"Ġgoodbyes":8285,"Ġcoach":8286,"Ġattem":8287,"Choo":8288,"Ġmesses":8289,"quet":8290,"Ġconvers":8291,"ĠNutty":8292,"val":8293,"ĠJet":8294,"Ġcaps":8295,"ĠCook":8296,"Ġenem":8297,"Ġenemies":8298,"Em":8299,"asha":8300,"Ġscrub":8301,"ĠTweety":8302,"Ġyummiest":8303,"Ball":8304,"Ġswallow":8305,"Ġreturning":8306,"Ġadmiration":8307,"romise":8308,"Ġsprout":8309,"Ġunable":8310,"Ġbless":8311,"Ġsadder":8312,"Ġbrightest":8313,"ugging":8314,"Ġfreezing":8315,"Ġrespon":8316,"reverse":8317,"Ġcosy":8318,"Trust":8319,"Ġresponse":8320,"Molly":8321,"His":8322,"iri":8323,"Ġbride":8324,"Ġdiamonds":8325,"stalk":8326,"Ġreapp":8327,"ooks":8328,"Ġgarbage":8329,"Ġhonking":8330,"Ġopport":8331,"Ġstretches":8332,"Ġprevented":8333,"Ġwhispering":8334,"erk":8335,"Ġodd":8336,"Ġwhoever":8337,"antastic":8338,"Ġawful":8339,"alth":8340,"Ġjourneys":8341,"Ġweighs":8342,"Ġawoke":8343,"ĠJean":8344,"Brrr":8345,"Ġdragonfly":8346,"Ġtraps":8347,"ĠShark":8348,"ĠOliv":8349,"Ġspices":8350,"Ġborn":8351,"atty":8352,"ĠFloppy":8353,"Ġclip":8354,"Ġreassured":8355,"Ġstall":8356,"Ġbeanstalk":8357,"Ġargum":8358,"Ġexamining":8359,"Ġbeetles":8360,"Ġautomobiles":8361,"Ġdefinitely":8362,"mine":8363,"ĠTammy":8364,"ĠBub":8365,"ici":8366,"Ġvisitors":8367,"Ġstuffing":8368,"Ġplaydate":8369,"Ġwashes":8370,"ĠAny":8371,"broken":8372,"cie":8373,"Ġwiser":8374,"Ġcustomer":8375,"ĠWolf":8376,"ĠTre":8377,"emma":8378,"uper":8379,"Ġtravelling":8380,"Ġbou":8381,"ĠHello":8382,"Ġhairdress":8383,"Ġbouquet":8384,",'":8385,"Ġtumbled":8386,"orse":8387,"ĠPick":8388,"ĠJaney":8389,"Ġdecoration":8390,"Ġcampfire":8391,"ĠAmber":8392,"Ġbud":8393,"Ġhonesty":8394,"action":8395,"vy":8396,"Ġbomb":8397,"ĠJumpy":8398,"Ġwelcoming":8399,"Ġoffering":8400,"ĠMagic":8401,"Ġwealth":8402,"Ġtroubles":8403,"Ġincreasing":8404,"Ġoccas":8405,"Ġloudest":8406,"Ġinspired":8407,"Ġparted":8408,"Ġgroan":8409,"Ġtype":8410,"ĠAshley":8411,"Ġwhales":8412,"becca":8413,"ĠMoppy":8414,"ĠRebecca":8415,"ĠHar":8416,"ĠEliza":8417,"Ġdeclared":8418,"Only":8419,"Ġcorrectly":8420,"fus":8421,"ĠFly":8422,"Ġcraft":8423,"Ġbeaks":8424,"Ġcleared":8425,"athan":8426,"ĠSal":8427,"Ġcowboys":8428,"Soon":8429,"ĠGabby":8430,"Ġnuzzled":8431,"ĠSasha":8432,"Ġexch":8433,"Ġwarmly":8434,"Ġprizes":8435,"ĠBrian":8436,"ĠDay":8437,"ĠCici":8438,"Ġrewards":8439,"Ġobeyed":8440,"Ġcustomers":8441,"yl":8442,"ĠSil":8443,"Ġcomforting":8444,"Ġsirens":8445,"da":8446,"ooky":8447,"shaped":8448,"Should":8449,"Ġconnect":8450,"match":8451,"Ġtowns":8452,"ĠRub":8453,"ĠOlivia":8454,"Ġrely":8455,"iolet":8456,"elieve":8457,"Ġfantastic":8458,"Ġtrigger":8459,"Ġowns":8460,"Ġbends":8461,"Ġinsisting":8462,"Ġspoiling":8463,"Ġhairdresser":8464,"Ġpipes":8465,"Ġposes":8466,"Ġshares":8467,"Ġcleans":8468,"Ġsupporting":8469,"Ġsurrendered":8470,"ĠTippy":8471,"ĠBert":8472,"rench":8473,"Ġwrinkled":8474,"Ġchopped":8475,"ĠTyler":8476,"Ġmoons":8477,"Ġrecorder":8478,"Ġbeaming":8479,"Car":8480,"ĠLight":8481,"unes":8482,"ellow":8483,"Ġthanking":8484,"Ġsnowy":8485,"ĠGracie":8486,"Ġscurry":8487,"ĠPine":8488,"Ġenjoyable":8489,"Ġactive":8490,"ĠStep":8491,"Ġexperien":8492,"Ġcoral":8493,"ĠBaa":8494,"Ġdollar":8495,"Ġenviron":8496,"worm":8497,"elope":8498,"Ġloc":8499,"Ġstreamers":8500,"bble":8501,"udged":8502,"ĠSweet":8503,"inger":8504,"Ġexamp":8505,"ĠTwist":8506,"Ġshorts":8507,"Ġshooed":8508,"Ġenvironment":8509,"Ġill":8510,"Ġscent":8511,"Ġbruises":8512,"oor":8513,"uster":8514,"Ġgrat":8515,"ĠHopper":8516,"Ġhisses":8517,"ĠJoke":8518,"Ġplugged":8519,"acle":8520,"Ġself":8521,"Ġsteering":8522,"ĠPretty":8523,"Ġwarrior":8524,"Ġvisits":8525,"Ġexercises":8526,"ĠMonkey":8527,"over":8528,"aptain":8529,"Ġdangers":8530,"Ġcuddles":8531,"Ġsigning":8532,"Ġunfortunately":8533,"Ġsquished":8534,"screen":8535,"Ġdisappoint":8536,"bee":8537,"Ġpilots":8538,"munk":8539,"ĠNora":8540,"Ġapplauding":8541,"Ġgratitude":8542,"alf":8543,"ĠWil":8544,"Ġproviding":8545,"Ġting":8546,"Ġtickles":8547,"Ġbadger":8548,"Ġnights":8549,"Ġjud":8550,"Ġstorms":8551,"Ġconvinced":8552,"Ġyoun":8553,"Ġresponsib":8554,"Ġchoosing":8555,"Ġbrains":8556,"Ġactivity":8557,"Ġnearest":8558,"Ġyoungest":8559,"Ġexploded":8560,"Ġarranged":8561,"Ġcoughed":8562,"Bella":8563,"ĠOff":8564,"Ġrewarding":8565,"ĠAuntie":8566,"good":8567,"Ġbond":8568,"Ġsunscreen":8569,"Ġpeep":8570,"erpiece":8571,"ĠRufus":8572,"Tree":8573,"asers":8574,"Ollie":8575,"ĠFort":8576,"ilities":8577,"Ġannoying":8578,"Grow":8579,"sn":8580,"ĠFlora":8581,"Ġsoapy":8582,"ĠBerry":8583,"meow":8584,"ĠTessa":8585,"Ġlaces":8586,"Ġrails":8587,"Ġtapping":8588,"Ġoffic":8589,"Ġthreads":8590,"Ġappreciated":8591,"ĠHelen":8592,"Ġweighing":8593,"ĠCally":8594,"boards":8595,"Ġheartbroken":8596,"Ġemerged":8597,"Ġcongratulated":8598,"ĠMicroscope":8599,"Bear":8600,"Danger":8601,"Ġtin":8602,"ĠTomorrow":8603,"Ġclerk":8604,"ĠGilly":8605,"Ġcrocodiles":8606,"Ġscram":8607,"Ġattempt":8608,"water":8609,"Ġdial":8610,"Ġsnug":8611,"Ġmessed":8612,"Ahoy":8613,"Ġexample":8614,"ĠJenn":8615,"Ġhooks":8616,"Ġtops":8617,"Ġchipmunk":8618,"Ġsoot":8619,"Ġbathed":8620,"Ġguarding":8621,"Sarah":8622,"ĠPenelope":8623,"Ġmanager":8624,"Pe":8625,"ĠFortunately":8626,"etah":8627,"Ġmasterpiece":8628,"ending":8629,"ĠMart":8630,"Ġerasers":8631,"Ġfet":8632,"Ġfinishes":8633,"Ġtips":8634,"Ġcommon":8635,"ĠFelix":8636,"Ġmemb":8637,"Ġdigs":8638,"Ġnibbled":8639,"Ġtrotted":8640,"Ġmembers":8641,"ĠSet":8642,"ĠFay":8643,"Ġkinder":8644,"Ġcheetah":8645,"Ġexpert":8646,"Ġblond":8647,"Ġchews":8648,"ĠPeggy":8649,"Ġparticularly":8650,"ircle":8651,"Ġbeast":8652,"Ġrips":8653,"ĠRiri":8654,"Ġargument":8655,"ative":8656,"Ġfaith":8657,"ĠHelping":8658,"Ab":8659,"ĠSuper":8660,"ĠAndrew":8661,"Ġearned":8662,"Ġobserving":8663,"Ġforgiveness":8664,"Ġcheaper":8665,"Ġmischie":8666,"Ġfishes":8667,"Ġinstantly":8668,"Ġexperienced":8669,"Ġcages":8670,"Ġgenerosity":8671,"Ġmischievous":8672,"Ġfoam":8673,"Ġmeowing":8674,"Mark":8675,"mered":8676,"ĠBarry":8677,"ĠBuster":8678,"Ġstores":8679,"Ġgrandd":8680,"ĠExcitedly":8681,"Friends":8682,"Ġmattered":8683,"etchup":8684,"Ġlimp":8685,"Ġpasses":8686,"ĠIce":8687,"ĠCaptain":8688,"Ġteles":8689,"Ġsleeps":8690,"ĠFle":8691,"ĠPuffy":8692,"Ġbreaths":8693,"Ġrin":8694,"ordinary":8695,"Ġgasps":8696,"ĠGill":8697,"Got":8698,"Ġrumbling":8699,"Ġtrans":8700,"Ġhatch":8701,"ĠZog":8702,"ĠMatilda":8703,"abra":8704,"Ġgrassho":8705,"Ġsatisf":8706,"Ġaccomplished":8707,"Ġthump":8708,"Ġstrum":8709,"acing":8710,"Ġmats":8711,"Ġsmartest":8712,"Ġtelescope":8713,"Ġwhined":8714,"ĠBobbie":8715,"Ġmoat":8716,"Ġjugg":8717,"Ġfarmers":8718,"Ġscrambled":8719,"ĠMila":8720,"Ġdrip":8721,"Ġgardens":8722,"Ġangrily":8723,"Ġsyrup":8724,"Ġcollapsed":8725,"ouraged":8726,"idey":8727,"Ġforests":8728,"Ġvegg":8729,"Ġdiscoveries":8730,"Ġstyles":8731,"Ġexperiences":8732,"Ġtor":8733,"ĠTiger":8734,"Ġfaint":8735,"ering":8736,"Ġmedals":8737,"ĠCloud":8738,"hole":8739,"Chirpy":8740,"Ġmeaning":8741,"ĠDoes":8742,"Ġconqu":8743,"Ġcourt":8744,"Ġotters":8745,"Ġtypes":8746,"pit":8747,"Ġfif":8748,"ĠLy":8749,"adabra":8750,"ĠWaff":8751,"Ġsnapping":8752,"Ġhardest":8753,"acock":8754,"Ġmovements":8755,"Ġexpression":8756,"Ġchilly":8757,"ĠPig":8758,"acles":8759,"Ġbubbly":8760,"Ġsurv":8761,"Ġaffect":8762,"ĠOtto":8763,"Ġvests":8764,"Ġunfair":8765,"Ġtoothbrush":8766,"Ġextraordinary":8767,"Ġscores":8768,"Ġmir":8769,"ĠApp":8770,"ĠButter":8771,"Ġattitude":8772,"ĠPeep":8773,"Teddy":8774,"Ġbluebird":8775,"Ġhorri":8776,"Ġvibr":8777,"Once":8778,"ĠPinch":8779,"ĠRainbow":8780,"mel":8781,"lls":8782,"Ġketchup":8783,"ĠRight":8784,"Ġspears":8785,"Ġsooner":8786,"Ġbehaviour":8787,"Ġgrasshopper":8788,"Ġhabit":8789,"Ġpatches":8790,"Ġmomma":8791,"Ġafar":8792,"Remy":8793,"Ġpokes":8794,"ĠLife":8795,"ĠGold":8796,"Ġthie":8797,"Ġscri":8798,"Ġthicker":8799,"Ġicky":8800,"Ġshrunk":8801,"Ġclassmates":8802,"Ġsqueezes":8803,"Ġslithered":8804,"ĠRosa":8805,"Ġglittering":8806,"Ġprickly":8807,"Joe":8808,"ĠBonnie":8809,"Ġtopp":8810,"Ġkneeling":8811,"Ġannounced":8812,"elling":8813,"Ġpeacock":8814,"plash":8815,"Ġmarking":8816,"ĠSand":8817,"lt":8818,"ĠSir":8819,"ĠAchoo":8820,"ctric":8821,"Ġcosts":8822,"ĠMelissa":8823,"ĠAc":8824,"Ġwatermel":8825,"Ġzigzags":8826,"ĠMixie":8827,"Ġthieves":8828,"Ġhood":8829,"ĠLung":8830,"Ġjumper":8831,"Ġacts":8832,"Ġskirts":8833,"ĠSilver":8834,"ĠSpidey":8835,"Ġwolves":8836,"Ġcocoon":8837,"ĠAnnabelle":8838,"Ġdrift":8839,"Ġsqueaky":8840,"Ġthumbs":8841,"ĠAnimal":8842,"Jimmy":8843,"Ġboards":8844,"ĠJelly":8845,"ĠEd":8846,"Ġwoodcut":8847,"ounce":8848,"Ġservant":8849,"Baa":8850,"idence":8851,"Ġcheating":8852,"ĠRiley":8853,"bu":8854,"cat":8855,"lo":8856,"Ġraking":8857,"Ġtrading":8858,"ĠMine":8859,"ĠMath":8860,"Ġexplaining":8861,"Leo":8862,"Ġbiscuit":8863,"Ġtidied":8864,"Ġluckily":8865,"Ġlunchtime":8866,"anced":8867,"idy":8868,"ĠInky":8869,"Ġspilling":8870,"Honey":8871,"ĠUse":8872,"ĠPaula":8873,"ĠMonster":8874,"Ġconcer":8875,"Ġdesserts":8876,"Ġtransform":8877,"ror":8878,"ĠLi":8879,"âĢ¦":8880,"ĠKy":8881,"rough":8882,"its":8883,"Ġmessages":8884,"Ġbeating":8885,"Ġchill":8886,"Ġwindowsill":8887,"Mouse":8888,"ĠBoom":8889,"Ġseeking":8890,"Ġactor":8891,"amma":8892,"sess":8893,"ĠHi":8894,"Ġforeshadow":8895,"pril":8896,"Never":8897,"war":8898,"Ġleans":8899,"ĠCarla":8900,"Ġhissing":8901,"Ġflashing":8902,"ĠJose":8903,"Ġdev":8904,"Ġcloths":8905,"racadabra":8906,"Ġwatermelon":8907,"Ġfunn":8908,"Ġteap":8909,"Ġwinding":8910,"Ġdiscouraged":8911,"Ġpositive":8912,"pop":8913,"Ġdripped":8914,"Ġcompete":8915,"Ġforts":8916,"ĠYummy":8917,"ĠFeel":8918,"Ġwoodcutter":8919,"Ġpressing":8920,"Ġdisagreeing":8921,"Fire":8922,"Freeze":8923,"Ġglimmering":8924,"ĠTooth":8925,"Ġtidying":8926,"Ġtrusts":8927,"Ġkangaroos":8928,"Ġveggies":8929,"Ġlanding":8930,"Ġtempted":8931,"ĠBoat":8932,"Ġdock":8933,"icking":8934,"ĠPeace":8935,"lers":8936,"Ġformed":8937,"Ġshallow":8938,"Ġoverw":8939,"ĠChip":8940,"ĠSteven":8941,"ĠSlinky":8942,"Ġteapot":8943,"Ġ4":8944,"Ġfade":8945,"Ġrack":8946,"ĠRatty":8947,"flowers":8948,"Ġworst":8949,"Ġelectric":8950,"Ġcops":8951,"Ġapology":8952,"creams":8953,"ĠSqueak":8954,"Grandpa":8955,"Ġsleds":8956,"Ġass":8957,"upid":8958,"Ġcomets":8959,"Ġsav":8960,"ĠCircle":8961,"Ġpapa":8962,"ĠHurry":8963,"Ġsituations":8964,"Ġconversation":8965,"Ġofficers":8966,"ĠWaffle":8967,"ĠTip":8968,"Ġslee":8969,"ĠWoolly":8970,"Sun":8971,"Ġding":8972,"storm":8973,"Ġsuns":8974,"âĢĿ,":8975,"Ġpizzas":8976,"Ġzips":8977,"Ġmiller":8978,"Ġstructures":8979,"Ġscurrying":8980,"Ġoverwhel":8981,"Ġfoggy":8982,"ĠSnake":8983,"Ġgranddaughter":8984,"ĠApril":8985,"ĠBirds":8986,"Ġwebs":8987,"Ġdeserved":8988,"ĠTra":8989,"Ġcubs":8990,"Ġopportunity":8991,"ĠFaye":8992,"iving":8993,"Ġsnorted":8994,"ĠRavi":8995,"Ġrhino":8996,"ĠYellow":8997,"Ġdifferences":8998,"ĠTell":8999,"Ġquacking":9000,"ĠImmediately":9001,"oot":9002,"Ġheaven":9003,"ifully":9004,"Ġinter":9005,"Ġlevers":9006,"Ġunlo":9007,"Ġinchworm":9008,"Jill":9009,"ĠSmoke":9010,"Ġapproach":9011,"ssess":9012,"Ġpossess":9013,"ĠMole":9014,"ĠMona":9015,"Ġseagulls":9016,"Ġcooperate":9017,"sers":9018,"ĠEver":9019,"?âĢĿ.":9020,"welcome":9021,"ragon":9022,"ĠFlopsy":9023,"ĠOver":9024,"Ġpose":9025,"Ġdisappointment":9026,"Ġdep":9027,"ĠCars":9028,"Ġspeaks":9029,"Ġbinoc":9030,"Ġsneaks":9031,"sie":9032,"Ġartwork":9033,"snap":9034,"Ġscowl":9035,"Ġanswering":9036,"Ġsurfed":9037,"ĠLiza":9038,"Rock":9039,"Ġshortcut":9040,"ĠViolet":9041,"Ġsipped":9042,"ĠCandy":9043,"Ġrobin":9044,"rick":9045,"ssy":9046,"Ġarrest":9047,"ĠMus":9048,"Ġreun":9049,"Ġamused":9050,"Ġribbit":9051,"Ġunwrapped":9052,"ugar":9053,"Ġpepperoni":9054,"Ġrepeats":9055,"Ġapplause":9056,"Ġkeyhole":9057,"Ġcheckout":9058,"Deal":9059,"Ġvisitor":9060,"Ġstriking":9061,"Ġpaddling":9062,"Ġpuppets":9063,"Eat":9064,"Ġunz":9065,"Ġattacked":9066,"Ġcroaked":9067,"ĠBeef":9068,"Ġspooky":9069,"orsie":9070,"uses":9071,"ĠCon":9072,"Ġbeautifully":9073,"Ġgroaned":9074,"gar":9075,"cidents":9076,"Ġchecking":9077,"Ġswimsuits":9078,"Ġconsider":9079,"ĠMarch":9080,"jest":9081,"Ġgroom":9082,"Ġwaters":9083,"Lisa":9084,"Ġinvent":9085,"ĠLiam":9086,"ĠJody":9087,"otion":9088,"Ġnets":9089,"Ġexams":9090,"ĠFind":9091,"ĠRing":9092,"Ġdrying":9093,"Ġlump":9094,"agine":9095,"ĠCammy":9096,"ĠJanet":9097,"Ġshrugs":9098,"Climb":9099,"lest":9100,"Ġsobbing":9101,"Ġshyly":9102,"Ġcheerfully":9103,"Ġshoots":9104,"Ġheels":9105,"Ġhonks":9106,"ĠBubu":9107,"ili":9108,"esses":9109,"Ġshh":9110,"Ġchin":9111,"ĠDoug":9112,"Emma":9113,"anish":9114,"ĠHorsie":9115,"ĠGlow":9116,"Ġhangs":9117,"Ġhealthier":9118,"Ġwhimpered":9119,"icious":9120,"Ġcaterpillars":9121,"Ġfries":9122,"Ġsquinted":9123,"izzes":9124,"Ġmagnifying":9125,"Ġblamed":9126,"Ġfascinating":9127,"Ġsculp":9128,"Ġtablet":9129,"Ġfrustration":9130,"Ġsculpture":9131,"ouched":9132,"Ġshimmering":9133,"ĠThrough":9134,"ĠHeli":9135,"ĠMartin":9136,"Ġposs":9137,"Ġsuck":9138,"edic":9139,"ĠOld":9140,"Ġnumbered":9141,"Ġpleas":9142,"ĠJohny":9143,"ĠOxy":9144,"ĠBa":9145,"ĠPast":9146,"Ġnibble":9147,"ĠAlf":9148,"ellie":9149,"othy":9150,"Ġflowing":9151,"Ġbaa":9152,"hings":9153,"Ġgrumbled":9154,"Ġraked":9155,"oll":9156,"Ġbuilder":9157,"emy":9158,"that":9159,"Ġfacing":9160,"Ġguards":9161,"Ġpetting":9162,"ĠLooking":9163,"Ġswaying":9164,"racted":9165,"ĠFeeling":9166,"ĠMatch":9167,"Ġmysteries":9168,"Ġsprinkle":9169,"Ġdetails":9170,"Ġflock":9171,"Ġsnort":9172,"Ġenemy":9173,"eat":9174,"amil":9175,"ĠBun":9176,"Ġgoodies":9177,"ĠWhite":9178,"Ġtextures":9179,"Ġwig":9180,"Ġpopping":9181,"ulars":9182,"ĠJohnson":9183,"Ġcrops":9184,"Ġmarve":9185,"Ġcountries":9186,"Ġfans":9187,"Ġwildflowers":9188,"Ġstacks":9189,"how":9190,"Ġknobs":9191,"ĠQuickly":9192,"Any":9193,"Ġbushy":9194,"Ġlocal":9195,"Ġstew":9196,"Ġbowing":9197,"Ġangrier":9198,"Ġhunting":9199,"Sharing":9200,"Ġdrowned":9201,"Ġpeeped":9202,"Ġbinoculars":9203,"Ġmaps":9204,"Ġniece":9205,"Ġquizzes":9206,"Ġmoonlight":9207,"ĠDeal":9208,"Ġoutfits":9209,"ĠSleepy":9210,"ĠTriangle":9211,"OO":9212,"Ġwrench":9213,"ĠIcy":9214,"Ġwhoosh":9215,"Ġweaker":9216,"Ġmindful":9217,"Ġcrowded":9218,"Ġendings":9219,"ĠKn":9220,"cycles":9221,"ĠCoal":9222,"Ġflashes":9223,"ĠCut":9224,"ĠCare":9225,"Ġhesitation":9226,"ĠWonder":9227,"Ġproperty":9228,"Ġboil":9229,"ĠFix":9230,"ĠSpicy":9231,"Ġability":9232,"Ġunless":9233,"Ġfond":9234,"Ġcarts":9235,"Ġimaginations":9236,"amiliar":9237,"ĠOxygen":9238,"getic":9239,"Ġglared":9240,"ĠAccidents":9241,"ĠToo":9242,"Ġhaven":9243,"stand":9244,"Ġknit":9245,"Ġfolds":9246,"Ġmicrow":9247,"Ġspaces":9248,"Ġunfamiliar":9249,"saw":9250,"ths":9251,"Ġdirtier":9252,"Ġresponsibility":9253,"bank":9254,"Ġpouch":9255,"Momo":9256,"ĠLeah":9257,"Ġdesks":9258,"Ġmicrowave":9259,"ĠSurpr":9260,"sey":9261,"ĠTrucky":9262,"Ġcracker":9263,"ibly":9264,"Ġdate":9265,"ĠJas":9266,"Ġswapped":9267,"rnie":9268,"Ġmember":9269,"Ġaston":9270,"ets":9271,"ĠPer":9272,"free":9273,"Ġwhine":9274,"Ġrebu":9275,"Ġdoorstep":9276,"Ġsoftened":9277,"Ġdisappearing":9278,"Ġnatur":9279,"Ġquacks":9280,"ĠBro":9281,"Ġlistener":9282,"scar":9283,"Ġwriter":9284,"ĠCarly":9285,"Ġblushed":9286,"Ġpriv":9287,"Bless":9288,"uke":9289,"Ġnoticing":9290,"venir":9291,"ĠRes":9292,"Ġpalms":9293,"upt":9294,"repe":9295,"ĠCrabby":9296,"Ġsouvenir":9297,"poison":9298,"ai":9299,"endant":9300,"entr":9301,"ĠPot":9302,"Ġdisaster":9303,"Ġlaws":9304,"ĠAnimals":9305,"repeat":9306,"Want":9307,"reg":9308,"str":9309,"ĠBelle":9310,"Ġphones":9311,"ala":9312,"Ġconfidence":9313,"ingly":9314,"Ġstirs":9315,"Ġtimid":9316,"Ġoverwhelmed":9317,"Ġflick":9318,"Ġmayor":9319,"Ġtugging":9320,"ĠRun":9321,"Ġ''":9322,"guess":9323,"Ġuntangle":9324,"ĠFlap":9325,"Ġowls":9326,"Ġmailing":9327,"Two":9328,"Ġinjured":9329,"sa":9330,"ĠBooks":9331,"Whose":9332,"Ġconcentr":9333,"Ġsatisfaction":9334,"ĠSandra":9335,"ĠMamma":9336,"ching":9337,"ĠClose":9338,"ĠClean":9339,"mers":9340,"Ġlim":9341,"ĠEat":9342,"Ġprank":9343,"ĠJoanna":9344,"this":9345,"ĠHank":9346,"ĠCoby":9347,"ĠJennie":9348,"Ġhooves":9349,"well":9350,"Ġfixer":9351,"ĠFlicker":9352,"icate":9353,"Ġclut":9354,"Ġsnar":9355,"ĠKen":9356,"ĠReliable":9357,"bling":9358,"ĠSing":9359,"Ġskies":9360,"Ġinstrument":9361,"ĠFa":9362,"Ġcapt":9363,"Rain":9364,"lish":9365,"adually":9366,"Ġdesc":9367,"Ġdisagre":9368,"Ġpecks":9369,"ĠPink":9370,"Ġcreak":9371,"iky":9372,"Ġstains":9373,"ĠStanley":9374,"Ġwriggled":9375,"Ġrinse":9376,"ĠJasmine":9377,"ĠKyle":9378,"ĠOscar":9379,"Ġshave":9380,"ĠNate":9381,"Ġbumping":9382,"Nothing":9383,"ĠScissors":9384,"ĠOf":9385,"Ġruff":9386,"ulf":9387,"Ġbending":9388,"ĠGreeny":9389,"Ġswir":9390,"ĠCher":9391,"Ġsandpit":9392,"cessary":9393,"Ġexploration":9394,"Owl":9395,"Ġchatted":9396,"Ġlever":9397,"ĠBrad":9398,"Ġrods":9399,"Ġfacts":9400,"Ġattaching":9401,"Ġfooled":9402,"ĠClimb":9403,"Ġburger":9404,"Ġglows":9405,"Ġclearly":9406,"Close":9407,"ĠSettle":9408,"Ġconcerned":9409,"Make":9410,"Rob":9411,"Ġlava":9412,"Ġcompan":9413,"Ġsalon":9414,"Ġreversing":9415,"Ġcertainly":9416,"ĠLots":9417,"Ġsmelt":9418,"els":9419,"ĠBlack":9420,"Ġcirc":9421,"Ġmotorcycles":9422,"Ġfetched":9423,"Ġtunes":9424,"Ġsometime":9425,"Ġtroll":9426,"Ġoldest":9427,"Ġprod":9428,"Ġfireflies":9429,"ĠSummer":9430,"ĠMs":9431,"Ġkissing":9432,"Ġchallenges":9433,"Ġblonde":9434,"Ġwarmed":9435,"Ġbound":9436,"Ġrubb":9437,"Ġdifferently":9438,"Ġunlocking":9439,"ĠLightning":9440,"Ġnatural":9441,"erg":9442,"ĠOpen":9443,"urple":9444,"Ġcutter":9445,"Ġcupcake":9446,"Ġriverbank":9447,"Ġdetect":9448,"Abracadabra":9449,"Ġconquered":9450,"Ġalley":9451,"ĠRaven":9452,"Ġhates":9453,"sorry":9454,"ula":9455,"Ġrealise":9456,"Ġsends":9457,"Ġswirls":9458,"Ġmunched":9459,"rap":9460,"ĠUni":9461,"Ġwiggling":9462,"Ġbanging":9463,"Ġsensation":9464,"ĠAgain":9465,"Ġfist":9466,"Ġclips":9467,"ĠAlan":9468,"Ġhippos":9469,"Isn":9470,"Ġtoppings":9471,"Ġhalves":9472,"Ġstings":9473,"Ġrobe":9474,"ĠWinky":9475,"Ġbrakes":9476,"ĠPatrick":9477,"Ġswayed":9478,"Ġmiracle":9479,"ĠSugar":9480,"ĠWorking":9481,"Ġostriches":9482,"Playing":9483,"Ġsurvive":9484,"Splash":9485,"Ġotherwise":9486,"bert":9487,"Ġcrushed":9488,"Ġbubbling":9489,"Ġembra":9490,"keepers":9491,"Ġtorto":9492,"ĠAvery":9493,"Ġtents":9494,"ĠGrump":9495,"ĠLucas":9496,"ĠCarrie":9497,"ĠInch":9498,"Ġrepairing":9499,"ĠWhich":9500,"Ġlizards":9501,"Ġstretchy":9502,"Ġvinegar":9503,"Ġrubbish":9504,"ĠRusty":9505,"Being":9506,"Ġpassenger":9507,"Ġpounced":9508,"aste":9509,"ĠJosie":9510,"ĠGinger":9511,"ĠRobin":9512,"Snow":9513,"Ġvibrant":9514,"Ġtortoise":9515,"Tiny":9516,"ĠDuke":9517,"Ġscene":9518,"gr":9519,"Ġbas":9520,"Ġglided":9521,"ĠOrange":9522,"ĠSundays":9523,"Ġmooed":9524,"Ġdesperately":9525,"Ġpoop":9526,"ĠHor":9527,"Ġintently":9528,"Ġsnip":9529,"Ġcalmer":9530,"Ġcopied":9531,"Ġmajest":9532,"net":9533,"ooh":9534,"Ġjing":9535,"Ġtwel":9536,"Ġwoken":9537,"Ġjoyfully":9538,"Ġcoolest":9539,"Ġrags":9540,"Ġjudges":9541,"ĠTears":9542,"ĠThings":9543,"ĠErnie":9544,"Ġglob":9545,"ĠBruce":9546,"Ġlectures":9547,"smelling":9548,"Ġhips":9549,"isible":9550,"anie":9551,"lyn":9552,"Ġquilt":9553,"Ġcousins":9554,"Ġastonished":9555,"ĠLaw":9556,"Ġcapes":9557,"uno":9558,"ĠWhee":9559,"Ġguesses":9560,"Ġarrives":9561,"Ġinvisible":9562,"Ġsuccessfully":9563,"Ġspeaker":9564,"Eww":9565,"Ġgooey":9566,"Ġreunited":9567,"Fly":9568,"why":9569,"ani":9570,"Ġbats":9571,"Ġtwelve":9572,"rum":9573,"urity":9574,"Ġgoodness":9575,"ĠPuff":9576,"Ġcomputers":9577,"Ġchatting":9578,"ĠStarry":9579,"Ġstacking":9580,"ĠSunshine":9581,"Ġsnowflake":9582,"ĠPinchy":9583,"Ġsus":9584,"Ġparks":9585,"istory":9586,"Ġracer":9587,"Ġcommun":9588,"Ġpounds":9589,"Ġdesperate":9590,"Ġreappeared":9591,"Ġcompanion":9592,"Ġdou":9593,"Ġank":9594,"Ġlevel":9595,"Ġluckiest":9596,"bed":9597,"Ġtale":9598,"Ġdumb":9599,"Ġgall":9600,"ĠDilly":9601,"Ġsells":9602,"Ġcrickets":9603,"Ġstomachs":9604,"Ġgates":9605,"Ġwinds":9606,"iggles":9607,"Ġdisobeyed":9608,"Ġdisagreement":9609,"mie":9610,"ĠIron":9611,"ĠSpin":9612,"Ġhoses":9613,"ĠComet":9614,"ĠReddy":9615,"Ġcrisp":9616,"ĠMarley":9617,"Ġawhile":9618,"Ġpearls":9619,"lor":9620,"ites":9621,"Ġsoda":9622,"ĠSocky":9623,"Ġloyalty":9624,"Ġpopsic":9625,"ĠWinter":9626,"ĠGemma":9627,"Ġtongues":9628,"oard":9629,"usion":9630,"ĠCD":9631,"ĠBea":9632,"Ġrider":9633,"ĠSwimmy":9634,"Ooh":9635,"ts":9636,"ĠJere":9637,"des":9638,"pan":9639,"Ġsurely":9640,"ĠSmo":9641,"rent":9642,"Ġbund":9643,"colored":9644,"ĠRoar":9645,"ĠJonathan":9646,"Ġoccasion":9647,"!âĢĻ":9648,"dog":9649,"Ġstun":9650,"Ġchicks":9651,"izza":9652,"Ġguitars":9653,"ĠSharp":9654,"ĠCarol":9655,"Ring":9656,"chief":9657,"Ġaboard":9658,"ĠPark":9659,"Ġintelligence":9660,"Ġalligators":9661,"Ġseparating":9662,"Ġseashe":9663,"Ġrebuild":9664,"Found":9665,"raw":9666,"ĠRace":9667,"Ġcreep":9668,"Ġcroak":9669,"oss":9670,"Ġcuc":9671,"Ġlearner":9672,"aids":9673,"ĠVery":9674,"Ġcaution":9675,"ĠLibby":9676,"Ġrins":9677,"Ġwhines":9678,"Ġspiky":9679,"ĠWhale":9680,"Ġrevealing":9681,"solut":9682,"working":9683,"ĠRara":9684,"Ġtickling":9685,"ĠPebby":9686,"Ġescap":9687,"Ella":9688,"ĠHur":9689,"Ġlace":9690,"Ġunderwater":9691,"Ġcrouched":9692,"Ġglobe":9693,"oma":9694,"Ġprog":9695,"Ġblooms":9696,"Ġappearance":9697,"!'.":9698,"fived":9699,"stop":9700,"Ġleaking":9701,"ifer":9702,"Ġhatched":9703,"Benny":9704,"Ġguardian":9705,"Ġstrokes":9706,"Catch":9707,"mo":9708,"Ġtant":9709,"Ġdoves":9710,"arning":9711,"Ġzookeepers":9712,"Ġpersistence":9713,"Ġroutine":9714,"Ġblame":9715,"Ġsquashes":9716,"Ġpainful":9717,"Ġlighting":9718,"Ġadmit":9719,"Ġtaps":9720,"ĠAmi":9721,"ĠBreezy":9722,"Ġshattered":9723,"ĠDragon":9724,"Ġmold":9725,"Ġripp":9726,"Ġdeeply":9727,"ĠCrusty":9728,"Ġtempting":9729,"Ġthrone":9730,"Ġsecurity":9731,"ggles":9732,"Ġpeeks":9733,"Ġburgers":9734,"Ġcentre":9735,"Ġsquirted":9736,"Ġelectricity":9737,"con":9738,"emon":9739,"ĠGiant":9740,"Ġcooks":9741,"Ġrealizing":9742,"ĠAllie":9743,"ĠVal":9744,"ĠSquee":9745,"Ġallowing":9746,"ĠTurn":9747,"Ġlar":9748,"cker":9749,"ĠBell":9750,"ushes":9751,"Ġchopping":9752,"Bobby":9753,"Ahh":9754,"Ġexchange":9755,"ĠColin":9756,"Ġsweetly":9757,"Toys":9758,"Ġsweeter":9759,"Share":9760,"Ġglittered":9761,"Ġrinsed":9762,"isapp":9763,"vering":9764,"Ġgoggles":9765,"ĠSpinny":9766,"Ġbuilders":9767,"Ġmelody":9768,"Ġmelts":9769,"Ġfurious":9770,"Ġenergetic":9771,"Ġdefeated":9772,"Ġwaded":9773,"asy":9774,"ĠCats":9775,"Ġsniffled":9776,"Ġchooses":9777,"ĠOtherwise":9778,"ĠJennifer":9779,"Ġtantrum":9780,"ĠHops":9781,"ĠPee":9782,"ĠPatient":9783,"Ġcompeting":9784,"Ġcontainer":9785,"Hop":9786,"bang":9787,"ĠRa":9788,"ĠGraceful":9789,"Frog":9790,"Ġhudd":9791,"Ġlull":9792,"arted":9793,"Ġprotection":9794,"Ġseriously":9795,"Ġundone":9796,"Ġattempts":9797,"Ġlarger":9798,"ĠBar":9799,"Ġcluck":9800,"ĠRandy":9801,"Ġbuckles":9802,"Ġhelicopters":9803,"Ġcooed":9804,"Shoo":9805,"Ġtossing":9806,"aps":9807,"ĠJoseph":9808,"Ġdedic":9809,"ĠGert":9810,"Ġhummed":9811,"Ġcourageous":9812,"ĠDidi":9813,"solutely":9814,"ĠLast":9815,"Ġgod":9816,"Ġaloud":9817,"Ġmuster":9818,"ĠGirl":9819,"Ġpatients":9820,"Ġracers":9821,"Ġdeserves":9822,"ĠMop":9823,"Fred":9824,"Red":9825,"Use":9826,"ĠLay":9827,"Ġmarvel":9828,"Ġmeets":9829,"Ġtours":9830,"ĠLand":9831,"ĠGret":9832,"Ġwrapper":9833,"Ġbooth":9834,"Ġwhiskers":9835,"Ġnicest":9836,"ĠKind":9837,"Ġimproving":9838,"ĠClare":9839,"ĠKenny":9840,"ĠNumber":9841,"ĠRoxy":9842,"ĠJeremy":9843,"Ġbold":9844,"ĠGu":9845,"Ġimaginary":9846,"Ġmeadows":9847,"ĠBrain":9848,"ĠTidy":9849,"Ġblades":9850,"ĠGreg":9851,"Ġobst":9852,"!'\"":9853,"\"!":9854,"Che":9855,"Surrender":9856,"ware":9857,"Ġopt":9858,"Ġcruel":9859,"Ġpairs":9860,"Ġstrolled":9861,"Ġrisky":9862,"ĠNelly":9863,"ĠThankfully":9864,"Ġpeels":9865,"ssssssss":9866,"Ġincredibly":9867,"Ġwinks":9868,"OP":9869,"ically":9870,"ĠPass":9871,"meal":9872,"Ġtanks":9873,"Ġnearer":9874,"Ġsquawk":9875,"Say":9876,"los":9877,"Ġtot":9878,"ĠRead":9879,"Ġmessier":9880,"Ġarmy":9881,"Ġlamps":9882,"Ġpedaling":9883,"Ġtransformed":9884,"can":9885,"ka":9886,"ris":9887,"Ġstur":9888,"Ġfail":9889,"teen":9890,"Ġinju":9891,"kind":9892,"she":9893,"illas":9894,"Ġrect":9895,"Ġpeak":9896,"shrink":9897,"ĠStand":9898,"Ġfuss":9899,"Ġmunching":9900,"Ġhorrible":9901,"Aw":9902,"Ray":9903,"Ġnarrow":9904,"Ġtreas":9905,"ighty":9906,"Ġoverhead":9907,"guard":9908,"Ġholidays":9909,"ĠSquare":9910,"Ġunwrap":9911,"Ġboiling":9912,"Ġbolt":9913,"Ġdryer":9914,"ĠChar":9915,"Ġpanicking":9916,"Ġpuffed":9917,"oned":9918,"Ġhost":9919,"Ġdives":9920,"Ġpossib":9921,"ĠPanda":9922,"Ġoffers":9923,"Ġsoftest":9924,"shirt":9925,"Ġconfusion":9926,"cloth":9927,"ĠCrocodile":9928,"Ġallerg":9929,"Ġuncovered":9930,"Ġmustn":9931,"Ġmarveled":9932,"ĠSoar":9933,"ĠNed":9934,"Ġcooled":9935,"Ġ--":9936,"Ġelders":9937,"ĠBruno":9938,"uction":9939,"ĠDogs":9940,"Uncle":9941,"Jenny":9942,"Sweet":9943,"Ġhint":9944,"Ġdips":9945,"iciest":9946,"Ġscre":9947,"Ġcurrent":9948,"ĠHurricane":9949,"Ġmustered":9950,"Ice":9951,"Sleep":9952,"ĠHa":9953,"Ġglanced":9954,"Ġgratefully":9955,"Ġcherish":9956,"Ġchains":9957,"Ġrotted":9958,"ĠMatthew":9959,"Ġcoughing":9960,"Ġheights":9961,"ĠHorsy":9962,"Ġankle":9963,"Ġtreasured":9964,"idi":9965,"ĠFather":9966,"parable":9967,"ĠCrane":9968,"'?\"":9969,"Ġsinking":9970,"Ġshaky":9971,"aly":9972,"ĠPurple":9973,"Ġcupboards":9974,"Ġenclos":9975,"Ġheavily":9976,"Ġenclosure":9977,"Ġmac":9978,"Ġspare":9979,"Ġinseparable":9980,"Ġsleigh":9981,"ĠClay":9982,"Ġgallop":9983,"ĠâĢĿ":9984,"Ġoatmeal":9985,"Jen":9986,"Ġhob":9987,"Ġlush":9988,"Ġdashed":9989,"iring":9990,"Ġriddle":9991,"Ġnecessary":9992,"Ġsection":9993,"Ġcanv":9994,"Ġunst":9995,"oured":9996,"ĠFluff":9997,"ippers":9998,"Ġclubs":9999}